a = [[-0.04606775726974372, 0.011648868667003681, -0.016826609339088316, 0.05303715964766249, 0.04024267418782355, 0.0025036942702439083, 0.051316563166465344, 0.045025456046719876, -0.02579064488683447, -0.048740737004646546, -0.05191505273432613, -0.01935062570034534, -0.05621770541654157, -0.02118142341141968, 0.03468139358153513, 0.04743113193780544, -0.048479643073611224, -0.03421582554935781, 0.062237588201935555, -0.03314493433977865, -0.019288829508157176, 0.046250357393215334, 0.003555123208074525, 0.013936870062821823, -0.027359963384353123, -0.02363091366871406, -0.049037846819016996, -0.0516538459680147, 0.014084823440460838, -0.015358987407403617, -0.025535775490092637, 0.007624538784051283, 0.05946397202901938, -0.024846664159177058, 0.00578419145377051, -0.028439467222520203, 0.05352796369630243, 0.04601044804821872, -0.015234621789037702, 0.03463421989825393, 0.005232313081731436, 0.02621873179763949, 0.05382465147823238, -0.03676866585384714, -0.0331980860030453, -0.03062271230963089, 0.0036506189372297374, 0.00034881048789181486, 0.06186714758892299, 0.019826114522653027, -0.023929192962621915, -0.03985243443866114, -0.010277419642409417, -0.06088105651815499, -0.02484369120232693, 0.06278425799564209, -0.013259944623770453, 0.04772747449701492, 0.02456927887643867, 0.05525018720416495, 0.026173670707960332, -0.02928490032929212, 0.005090198683458187, 0.01308239319128303, -0.056198341318299296, 0.022653897550235474, -0.03295974426265556, -0.05880003408307203, -0.005611646158772985, -0.019411214098263716, 0.053575391336900195, -0.05798438582516366, 0.006330304409281213, 0.041268284845003354, 0.04919538311652737, 0.027665287742435762, -0.03839849276160626, 0.04512759851131325, 0.016915741558320155, 0.046144598260913855, 0.024687144816984564, 0.0027876028405574575, 0.03627093716489666, 0.04116951352098084, -0.050291314133221, -0.04138743919812593, -0.05430692670924889, -0.03024157868436801, -0.03666524130268196, -0.04056894864628074, -0.04403342081696257, -0.05011193004396459, 0.03496826727784163, -0.01501547661331637, 0.02254888722721873, 0.04689827325939521, -0.02455340248524315, -0.022575788246386754, 0.03306997365797732, -0.007974599690056492, -0.013204041398974747, 0.03456818015963748, 0.0595167808539511, -0.05360153401040704, -0.04418459517131664, -0.014741829133649898, -0.04530219166894665, 0.031334516641944796, -0.046938601684033465, 0.03138709053805222, -0.004525826079341687, -0.03256294557062171, -0.050411474946943015, -0.006406092117963596, -0.04312570138936827, 0.010267978522637883, 0.06099973164436221, -0.042768249416587925, 0.037751623287128167, -0.01005289932315316, 0.041116993607707396, -0.06060522936106103, -0.013933274803637138, -0.008253035975875655, -0.06192358451989637, -0.03704007817812626, -0.05869644847123645, -0.050119452605774925, -0.026564397340314502, 0.023641296523349033, 0.06051122803483402, 0.03731176353949302, 0.024889415117017744, 0.028893222017015927, 0.042754399166690535, -0.032411976054380905, -0.001319446329639351, 0.04923395445613691, -0.04606371920696256, 0.05596398528377254, 0.05494102808862262, -0.0604129358437635, -0.0595228079121393, 0.006665853980729502, -0.043230140619096816, -0.002280086831337318, -0.04382073853759001, -0.012074126237096817, -0.044994689972206264, -0.05734261270882082, 0.05244319013255895, 0.05412513117697471, -0.03589024738351371, -0.01581047858253203, -0.04461875384344082, -0.046695449747734645, 0.0349385581053478, -0.036767201068484724, -0.05739316167566748, -0.041615783363401805, -0.0459109042514292, -0.04727147541976085, -0.028963286664217786, -0.004533149165157961, -0.02651952892388942, 0.0017788138836172093, 0.029516364202956204, 0.04221137306820472, -0.05374629623810937, 0.0005218749052371402, 0.011449501325844293, 0.03466118967051094, -0.02843078118284411, -0.030574913519806995, 0.0590947688499555, -0.009792697294282653, 0.05256451727515754, -0.0621914666134028, 0.003650915391594837, 0.03609801848443743, -0.052616248600050555, -0.046486188207584926, -0.03788612302702859, 0.02295745227372648, -0.043192882716607484, -0.023004199131948493, 0.048624593536842634, 0.021578521464427347, 0.025029649948186235, 0.04253520349505322, -0.021628482738644827, -0.03992740488759514, 0.006146459194433838, 0.040399418061932535, 0.002438760999501935, 0.043354692076043415, -0.058934591355078565, -0.04030021524639357, 0.0339782481019595, -0.05276798644968141, 0.02790707677845219, 0.059916095014791754, 0.0025969433987702855, 8.080028201314671e-05, -0.006313512282197256, 0.005401656016157435, 0.013724661906712265, -0.04392831762734881, 0.002492105078414638, 0.03460142020834834, -0.05221801036881242, 0.03715154366507299, 0.035610605196536506, 0.05785352632866879, 0.040621188200222806, 0.05866012577633546, -0.02913206715410391, -0.05583540704839468, 0.049038499286900364, 0.04485330967371071, 0.011228869414071564, 0.007886013145501919, 0.017873992416913013, -0.015502286820535296, 0.042848137953890156, 0.042976929998221745, -0.0428553226105258, -0.010998333484486563, 0.03238974515227139, 0.0019718958205805844, 0.05794832256802262, -0.048276286804543794, 0.013815785762263662, 0.0244601548877125, -0.03890240311981618, -0.03846292587968696, 0.0013843437474799166, -0.006035421139763007, 0.049957963938712005, 0.025277682049552067, -0.04017124142622492, 0.054435441787821295, 0.014857782503564057, -0.05574803654170297, 0.02473379832043405, -0.02091394806101075, -0.014263613961340007, 0.005192887156019374, -0.06073247261758047, 0.048415541788458576, -0.03904399466786504, 0.03578827409323215, -0.003379128216986038, 0.03971508252383906, 0.0482631612623957, -0.03526608896071817], [0.050020545491127534, -0.04676216335984556, -0.04686165713674076, 0.020489865700079265, -0.027286394954920724, -0.053832408904972456, -0.035351502735545985, -0.05939802972079153, -0.03170508516685107, 0.01952639577540249, -0.045744901131830405, 0.02867378555176037, -0.03485179860547981, -0.0565993236772974, -0.00712269887282398, 0.03071719574392395, -0.03655963080176516, 0.05713951236194152, 0.05895455058059236, 0.027569529814603633, 0.027496864559448768, -0.02933570008928215, 0.04555229102757957, 0.008678780438056324, 0.02467707062244546, -0.030693607859489, 0.01097026829203791, 0.04572361490250155, 0.01011022708346174, -0.05816185641985747, -0.04822870978508035, -0.022771092923881853, -0.03748246193903743, 0.0001729458909762481, 0.05035647320758918, -0.03812260190388946, -0.018796686124172245, -0.04905290427146362, -0.01938067392404864, 0.04091538292183446, -0.004421061985465443, -0.006279171482551638, -0.03797385314476491, 0.035033082358956164, -0.056697592427178645, 0.04746561913536931, -0.001667344338749977, 0.015665100250077012, 0.06118813437061978, 0.025606020510742563, 0.061138939529140665, 0.004584498419114932, -0.03476489690606207, -0.0560711089382685, 0.01800417508646515, 0.018504019621284395, -0.007299128188745899, 0.023504622359988972, 0.018819881085105537, 0.037118025563064976, -0.017691621917233523, 0.018320760007702403, 0.004169433517894651, -0.0038810189525364733, 0.036746166622965544, 0.011954034361517044, -0.0031161323208989864, 0.017007068338353103, 0.023182610233893796, 0.018849931722873605, -0.0556203397828891, -0.005368379194119403, -0.008301479820488391, -0.021919398034076894, -0.0062457234105372525, 0.04419809249387384, -0.043120901496403984, -0.06075966341909658, 0.0543172114140141, -0.02260680842003172, -0.06072805181867439, -0.009218786249965631, 0.008231707637058787, 0.03361677649957661, -0.06055907419861728, -0.03797909101536796, -6.848080353476666e-05, 0.03872163134588182, -0.03520447779000675, 0.04476067112341121, 0.0322444670081018, 0.011347288488612129, -0.002114515096955095, -0.05264946582978722, -0.002218197308506251, 0.020178057459230438, -0.022146892125294106, 0.05709204444129973, -0.017829422901028163, 0.017061184532953258, 0.05783109940678911, -0.004473994345751429, 0.05461696581955897, 0.0349001232497943, 0.02062067986000696, -0.045101229069020636, -0.029529981449465784, -0.03416074240819335, -0.006211846359825807, 0.061111125566751585, -0.02040794866387345, 0.007026559294576939, 0.04189040881395695, 0.02422668778023731, 0.012727350959391759, -0.030019244357133167, -0.01380774417494203, -0.005648958484645482, 0.01645056117482993, 0.0007106987735610418, 0.041478161203777744, 0.008140249487430815, -0.05984042003966939, 0.008942183394913842, 0.03823622033856705, 0.02930881970342135, -0.004354272079340045, -0.05561063756373723, -0.05668673485401273, -0.06039107423335025, 0.011978219897253657, 0.059278749539395444, 0.04060693048881242, -0.05427523705157896, 0.002745689867278541, 0.012229270451227906, -0.059987009774496114, -0.020214524291103007, -0.028136778688562878, 0.061357239219171654, 0.003093081443108056, 0.03964495369490758, 0.047799577191251864, 0.025853539726409934, -0.0500649302427587, -0.0021339724582077574, -0.061848548718602715, -0.013063757532619718, -0.050460420495896115, 0.04270486592133144, 0.012291217473806912, 0.01704665647922698, 0.05257352840044694, 0.021744646332380588, -0.018980836269665253, -0.017709100181901524, -0.011099048819739435, -0.0610205578874573, -0.04669155840684033, 0.061040245418492685, 0.0328934189297969, -0.060975183251655844, 0.030785125342016936, -0.011411877696669239, 0.0469457459555313, 0.022073336607536187, -0.03864697987393275, 0.016635635967461534, 0.020971314094674443, -0.06074739998238616, -0.011506739237925369, -0.05627708332530595, 0.02368208136151936, -0.05620081772347375, -0.007227562974399486, 0.03986581680895789, 0.005755826703313545, -0.047098823328404364, 0.03071556727088407, -0.04919927479581439, -0.020309543345044104, 0.009366689543264015, -0.015664704877999744, 0.0013062909862308085, 0.057966855144732723, -0.03506636444025988, -0.011158274708425371, 0.04725533474433223, 0.011029789078110976, -0.01959970443917039, -0.030108464521184677, 0.06053847749844761, 0.04464419090942412, -0.04969408782864402, 0.05040089237424979, 0.038164887369646336, 0.02318319554606981, -0.0260431203728681, -0.030767030460592808, 0.006099302821634895, -0.046040967689991004, 0.044597900895805606, 0.04251889005938457, -0.05003807766800363, 0.05792628291930675, 0.024682884548134984, -0.0026585522772421192, 0.01607099679407172, -0.06213264050470966, -0.0253018162477834, 0.03776298444799425, 0.05316809981151274, 0.03676212823867305, -0.042629143714556915, -0.01964800088316467, 0.04903613561967416, -0.029507928981525353, -0.02131442802994589, 0.019988978973265053, -0.016883906166389136, 0.04264935490686352, -0.052971225639054764, 0.03863770451173481, 0.02941450880985749, -0.01883754667087596, -0.02724655582954799, 0.019768669717717357, -0.05490478144304957, 0.03309928497863372, 0.020085902828499, 0.04946499793879036, 0.0554276376802381, -0.028760113491014955, -0.039428780737206424, -0.05800466818041391, 0.020437982996141947, -0.052078033407255794, -0.029515798221386322, -0.044174704712616725, 0.006933810896155928, -0.0161069974209095, -0.05217949120782588, -0.04448909149600067, 0.04791916867351541, 0.009127655019415516, -0.02394687099187189, -0.029279062492518968, 0.054515981942357176, 0.059360285555072674, -0.029566463470540812, -0.024511826377625973, -0.019261580437648335, 0.049541671414957224, 0.014059623784057479, 0.046654951871585616, -0.04836301339118767], [0.03543919414404295, -0.008750080213692427, -0.04168646638502693, -0.04617502520190834, 0.013328116697997727, -0.03438196563663374, -0.03314082454444185, -0.02484140507785657, -0.029894486548861232, 0.054538727978030145, 0.026327136842510063, -0.05658022960717197, -0.0012319623561327165, 0.03175979261173538, -0.03314933430610859, 0.022671983999379752, 0.0190503111451558, 0.051692075891183534, 0.039402884073913166, 0.010759833579342425, -0.027689540819104533, -0.06632730645201645, -0.02035407729961853, -0.02943533521529259, -0.05243547765186621, -0.017061524991453105, -0.018048652206341918, 0.019588063956179787, 0.02150324720842159, -0.02352526785153116, 0.020870688640585246, -0.0370118657914669, -0.016016746697964154, -0.028598076239118395, -0.053064236100032275, -0.059608759609309156, 0.018035362642274292, -0.03154075508601772, -0.03051583858737368, -0.04849159516576681, 0.01720160984601019, 0.018116202077387396, 0.05235216536376606, -0.017968579941889603, -0.02028904645607681, 0.01763017102225503, -0.03892839086964208, 0.037166102756172395, 0.05029086019229421, 0.0054086915942678756, 0.044146686374874726, -0.0356374593129497, 0.058532341812690195, -0.007666327997315124, -0.05309580873113158, 0.05052878056058018, -0.012396591779577023, -0.049478455648006375, 0.01154804556066004, -0.0007237108457803759, -0.030642457133183955, 0.007163474821654218, 0.015008390525184304, -0.03599141125439587, 0.0388801316397953, -0.008757116551392077, 0.010821237523312684, 0.04056417567993438, -0.025365113541371248, 0.016728631123732112, 0.04323454400588184, 0.03091501822182754, -0.02872559950999528, 0.0017320111555412336, 0.043661374522029145, 0.005464786173168581, -0.0002449383166417637, 0.05712391666161318, -0.05409564366230156, -0.022141666014909498, -0.024407205740907913, -0.03218855593007661, -0.023366237990682857, -0.006179242652482749, -0.045124870241185354, -0.0496351410064287, 0.00466741237685807, -0.02095819624058367, 0.013739450386084954, -0.04311991820336975, 0.000564511017506007, -0.03439457179234862, -0.05334579231267238, 0.026436962065656232, -0.032809171807844685, 0.007554540132912243, -0.006391908354686316, -0.01643927799351483, -0.015799634009923985, 0.014154519375769012, 0.05462040056454641, -0.047854691506685136, 0.036908305806779555, -0.003334541354100007, -0.020546616447075734, -0.02692662237408712, -0.04123863576675585, -0.024166313815453172, 0.0034814211382446377, -0.03860256950202578, 0.019906775718052466, -0.010246028062728108, -0.043518511722449256, -0.007903054678056465, -0.02571698128250491, 0.013531759538652014, 0.02981132955777698, 0.0202853450709406, -0.05665926226743569, -0.00694437590286733, -0.041796990990727, -0.03875606704625841, -0.0056709769364956366, 0.02312218673897456, 0.015519853377252356, -0.04978086466697166, -0.03370895455169913, 0.049582498529046365, -0.03536917661087704, -0.0070763593007006085, 0.018926704385663698, 0.01299373069726142, 0.04698071800918732, -0.047064093548351234, 0.041069770269031726, 0.0058271472299401, -0.010671367686692476, -0.012803896179816537, 0.01634623090883033, -0.03631798570597676, 0.03167530870483385, -0.03389137528170506, -0.024112256260210498, 0.053316970404644205, 0.022520525697784937, -0.053938923012445544, 0.05377759025714368, -0.0002687548563431245, -0.02759258832300735, -0.055923150120525254, -0.021022891339306488, 0.00789026159556716, -0.013970819595199233, -0.06207016810466409, 0.003688704993794255, 0.04442732976224802, 0.023230767188378975, -0.05394943108934305, -0.015534207217206449, 0.05280923939072063, 0.01460659405109128, 0.044241657728511595, -0.03401778756192024, 0.06225707518868249, -0.012524616080068425, 0.04445704000939099, 0.0006111718385848909, -0.042520117046715, -0.021256682941363955, 0.04416613328897852, -0.01865713344297993, 0.007283519486374837, -0.04573746961645724, 0.011232821710598992, -0.05462009421680369, -0.030377545359031644, -0.012528075301213994, -0.011450406732342192, -0.025202440092707164, 0.0014160673562316588, 0.009662709134868898, -0.0036652314248549786, 0.01111145301722233, -0.006843183985043453, -0.001106093291461894, 0.015574997987437498, 0.0101737044616429, -0.04063875453874422, -0.02872052830008147, 0.058774085828101924, 0.02777431085555461, 0.018622398906604012, 0.028918621576106588, 0.021013336084869553, -0.022628005637312137, -0.051240885627356465, 0.035668899798928365, -0.038070866588855334, -0.022373760666611935, -0.016294165773840383, -0.024822200392559352, -0.029233990717357043, 0.022704744449645327, 0.0008646854676654867, -0.014603377773797182, -0.02918193767775161, 0.013721535391400048, 0.019886270562732143, 0.03432387085240968, -0.05093805744382795, 0.016967677375065607, 0.003236971080429229, -0.06056243404202114, -0.023102501824951834, -0.016370888243298118, -0.02779187002892908, -0.007975400344271293, -0.0535374149099177, -0.03293132352063022, -0.030682144766124568, 0.003849405481649388, -0.046004111189179124, -0.018596162934340923, -0.03870056058647374, -0.034362009403839, 0.041734490146441816, 0.03127992106964928, -0.036450678212485564, -0.03579227872257343, 0.04616096714970247, 0.019054477053749082, -0.03349474855963622, 0.04848431643724939, 0.053990520048260854, -0.019247639596740192, 0.06162826198142015, 0.058165842372127026, 0.018740580069810074, -0.03175471202341578, 0.05571912236080345, -0.010654125893543566, -0.05286566663153595, -0.0512662001324153, -0.04555022488494805, -0.0065204432593497594, -0.02564771882385086, 0.017312705324768574, 0.01992443674613221, -0.05396277191690605, 0.005503572061413629, 0.04862082435975043, -0.051043755757611144, 0.0483688201947162, 0.04548909253989632, 0.00972957624713651, 0.04817802752794871], [-0.01052277195943518, -0.04124116518430864, 0.044035130189746835, 0.03711870897735496, 0.04771907561399031, -0.030484576178515688, 0.03735082817737238, 0.023511720302528228, 0.0543163612012098, 0.023519220019232467, -0.03931789559113318, 0.03606010552872245, 0.057034656210486055, 0.02244704942198246, 0.062009252382255686, 0.019346757590001443, -0.05902978709021118, 0.03897948062736754, 0.046357984410487905, -0.025793169097641924, -0.04839870416633888, -0.027535373526135016, 0.03636284233104649, 0.020849769568185125, -0.05651179126161377, -0.017417753302841912, 0.03590338170921335, 0.06234687398315597, 0.05223089030696066, -0.005082566877791256, 0.040812905220179184, -0.04014827952218879, -0.05225115860668862, -0.019015333521906496, -0.006393260055872039, -0.03285170420376137, 0.05076293240086404, 0.00038146759650099234, 0.054116497274068386, 0.016048477300787452, 0.02247501451511126, -0.05793067684600014, -0.010095834337076668, -0.008487176435066714, -0.035575238890633715, 0.03804893849210562, -0.0056945371974111815, 0.06288000409682605, -0.019442411521440425, 0.05914147745662277, -0.03734789380842066, 0.019724304670015277, 0.029302033031240224, -0.010502140090794575, 0.004600015839006274, 0.030510177128826574, 0.050219189491718365, 0.05342519037179011, 0.04002968589853192, -0.0010120304948615607, -0.00016123127677862353, -0.03266952319122157, 0.017675631677184542, 0.03735234475287551, 0.02611368907627099, 0.05084813512506174, 0.051405315691961696, -0.053495146760624175, -0.013766988794563714, 0.0028587401945744492, -0.04262422535380686, 0.04475952272383709, 0.021442552082252663, -0.0513148275386671, 0.004167855472693466, -0.028379277691974774, -0.025131776057646344, 0.057073778819352924, 0.05184264682460919, 0.0463820702107459, -0.03520840437847512, 0.021627607444173174, -0.019571717298258722, -0.015527129162731254, 0.005513914755402505, -0.04889658624988563, -0.05758611421769828, 0.039333202274405184, 0.05620321810915655, 0.033933172674630724, 0.02938260257380612, -0.0004506114248312167, 0.014686903434304116, 0.0001458083482044046, 0.03576526151820062, 0.010338813669634907, -0.028480025421786667, -0.029712319278386332, -0.04473417148550668, 0.04122043257685683, -0.014505564852612014, 0.05522635966162643, -0.009291518407904176, -0.048689851106896914, 0.03496377294328434, 0.007083133634584654, -0.03448636373998224, 0.0005229383605909936, -0.0027632773129270295, 0.0034211554356953556, -0.02906040299976247, 0.0417992829951406, 0.012740260955456849, -0.0135921789216884, 0.010861431392468595, -0.04731802146710566, -0.03886848657544959, 0.060681895106282566, 0.04410087097417512, -0.03579476797636511, -0.012112008946408636, 0.009374504304152936, -0.055726014545437345, -0.037950713654461336, 0.0058740236531644955, 0.002936189730699248, -0.05160268958074398, 0.006900864991688187, -0.009746468808038795, 0.023779803472296086, 0.0048765280398604, -0.04310228635145518, 0.050400400735068684, -0.04415672519889118, 0.015296313827447285, -0.0506134494256018, -0.029972060654618538, 0.0342875350547222, 0.00480866210654543, -0.053462798451802754, 0.028048906321889704, -0.005323142151897085, -0.04644115740338825, -0.044727909949674, 0.0006232414293516878, 0.05808619838586945, -0.03641906064414549, -0.038998308323261045, 0.03501393580351934, 0.055297609241395373, 0.058252327714204036, 0.023395601636193575, -0.03174518597938796, -0.04989610089449735, -0.05900282573173339, -0.04936028922287252, 0.028985143802972613, 0.01056161903476894, 0.016425643678489765, 0.056271568648844285, -0.021317510133579402, -0.019156803437969168, -0.05661994604305783, 0.024825605332076978, 0.05301085480074777, -0.03130302953662372, 0.004036320669852376, -0.015612206591552864, 0.017782561035269474, 0.026279257455747235, 0.03247485599876834, 0.03301078571187803, 0.026551472085244856, -0.04599419365116545, 0.02424721957151289, 0.02972172474611809, -0.054780605799471534, 0.012331591294542777, 0.007858079717403906, -0.013922462622428118, 0.05240690505353956, -0.05557690026541333, 0.0230864330154143, -0.00814765650462374, -0.020388142228970906, -0.03303854033215049, 0.027919397976043665, -0.062344074718307295, 0.04080335888006996, 0.06013931240011376, 0.0038326558277147556, -0.04444078072633594, 0.033689511886923366, -0.033388324893167266, -0.045507366481173796, -0.04088427992848734, -0.012387378232320933, -0.04664604486926144, 0.04100872257423421, 0.0021488332825703275, 0.04109230512348141, 0.05497126314513467, -0.004908925120853242, -0.042749997555228944, 0.04424004158675937, -0.006982654678020127, 0.041580426644737246, -0.03666272957938954, -0.005288725064856115, 0.04355420535852558, 0.05712019246965172, -0.04944841932231832, 0.018793030077829533, 0.028082885008485325, 0.033683412068820306, -0.05032952890940872, -0.01697126027542463, 0.06091463185257671, 0.05808001955713317, -0.061588741544797626, 0.03135259732851004, 0.057550853503043495, -0.04717722380994271, 0.029430869475828764, -0.04616232383825057, -0.03313062983293471, 0.035321284728536066, -0.015866462150539218, -0.03811277755792331, -0.016039016525351453, -0.05256078804369141, 0.05876918372314446, -0.05622319422181348, 0.01778703589332525, -0.004473214993443073, 0.01746698079297594, -0.033282610971406744, 0.03561692986245534, -0.053181160277549704, 0.04474302912187634, 0.058416206301775575, 0.021810622332018182, 0.039110440804269, -0.030945436791840503, -0.006318969017666501, 0.002755208605049879, -0.014158748484069984, 0.02565109138747421, 0.044902286097835274, -0.002338875645516738, -0.022254556963367284, 0.0029626672910652426, 0.0024570102319056686, 0.03215107871643658, 0.047619028558249205, -0.007006345581865474], [-0.0212040918824279, -0.04890330956426534, 0.0015214624695384666, -0.046342034993242284, -0.036807466024769545, -0.022405883825817284, 0.034463409900685894, -0.047928417067182615, 0.04409983069488184, 0.015968135131684835, 0.04567210474298044, -0.013569661729523749, 0.02492953746349313, -0.06067513146860261, 0.00888435625338213, 0.017053838401948674, 0.05641113608179431, -0.01669257794422282, -0.0017104391669485331, -0.018732518774573468, -0.023897578529715573, -0.023642948769423723, -0.05399104500978864, 0.031485047439525835, -0.04159454896156674, 0.05803930651185978, -0.038921471452760446, -0.03166846794959311, 0.0014657047443909928, 0.0194152077391612, -0.012421154672033696, -0.03237713291961525, 0.05343380465916047, -0.006804782131075837, -0.023196208121737616, -0.024893359175920428, -0.03389815059239932, -0.04975338327586657, -0.028001007737822353, -0.025506987406398007, -0.04211889924841657, -0.02076138248344263, -0.05385304786281453, -0.014247041948837039, 0.03256167180956845, 0.0007197508236085942, -0.04383128992045987, -0.03607632323285293, 0.04779252653261403, 0.013516900794124024, -0.009900419223185403, -0.01568516138670228, 0.019459525552191544, -0.04179057688782902, 0.03203127899520173, -0.04461389608220097, -0.0008971198826895314, 0.03508941798895808, 0.028226846526815928, -0.02837801814670242, -0.04321596632465607, 0.04634411562382893, -0.004737803022251419, -0.03757537441465047, -0.05795883606786073, 0.030349198346786593, 0.03734018944518611, 0.04305674936971956, -0.0556869774861982, 0.0024916545546003217, 0.039746338742855276, 0.03352438339975597, -0.036201909953927504, 0.036173225895512306, 0.022672826830424125, -0.0016711602638541125, 0.02110610098254807, -0.042935902060259795, -0.030380293314302583, 0.051093557811201146, -0.025250394196023093, -0.005565948085766154, -0.058478816771260024, 0.05577652027651687, -0.018338855727550767, -0.007690128440926362, 0.0383667995099179, -0.03506001842645629, 0.047328458374978455, -0.009334562500004171, 0.03722075362391019, 0.042326114413581514, -0.03075830937534171, 0.019461931084433552, 0.05981606799442273, 0.016529152192911838, -0.015156387743651118, -0.018064857640587653, -0.06160342673217851, 0.03560397940951021, -0.00880099681015955, -0.04149677545444787, 0.014393861993027222, 0.021462679929680394, 0.010431774053214939, 0.018695482371918648, 0.028747528198990936, -0.03512052860464064, -0.016578974091843893, -0.026768678714238686, -0.06058977130720192, 0.028747477756113606, 0.04167936389254015, -0.02759642356798172, 0.03834564827996154, -0.03297075084072049, 0.031703375163191064, 0.021942966706135388, 0.0596253946804999, 0.033170485282604446, -0.043683837773366485, -0.0023693099624779008, -0.0466575558750723, 0.01745078966148424, 0.022410905366652207, -0.03494749221370977, 0.06547152061187819, -0.05756191006754463, -0.03512653615627153, -0.001840443845903496, 0.005165014458292568, -0.04948270680374814, -0.05559301427588317, -0.021269394560382456, 0.02753909251001928, -0.044734924793961295, -0.04305252233591786, -0.0366126625689656, -0.020732261968286935, -0.05648331319094907, 0.0028674828230466527, 0.02803088352219923, -0.040010858869753745, -0.014789167031227929, -0.041252936806491884, 0.046820803562818966, -0.03108036484455724, 0.05410907563735642, 0.02506117675611206, 0.021195777691803964, -0.020213634447847354, 0.05880711771101901, -0.05886603867408152, 0.018286097006393134, -0.03908387107326103, 0.00517777114385849, 0.011077939519152813, 0.035932254422560095, 0.029766608998554968, -0.0595439990236293, -0.005410570665018645, -0.033000135908916074, 0.008000556991399415, 0.059716518123545385, 0.009668971815471826, -0.04922565192961263, -0.05028339482908719, -0.030516188748756022, -0.0374512350638969, -0.017586533000348372, 0.06025092932555852, -0.04294419115544671, 0.0006017244231495889, 0.04356107959929113, -0.04324230004089049, -0.04046155349082422, -0.04519482219269229, -0.01518440023423514, 0.038504103761617184, -0.027123415572367922, -0.008969322394709208, 0.006011967327686503, 0.0003651178627458711, -0.0038760890183089035, -0.05204475940815246, 0.03471357982820317, -0.036528292436231874, 0.04398794064737901, -0.015938254153220192, 0.006637943348535988, 0.007106476425872369, -0.006306598669255983, 0.008364328810330559, 0.004573160952408865, 0.022738664295447377, 0.0023181768826231177, 0.016883719060319935, -0.03021631315199719, 0.013299103652770403, 0.05446433776188196, -0.026458861804520693, 0.009928332113153509, -0.00868585258337126, 0.007686135010724919, -0.013857414542676505, -0.0027127378256933945, -0.059466200761309006, -0.03362704930164184, 0.010396302657577086, -0.021524547407257438, -0.05139390041338187, -0.052239202961223155, 0.01946661217884888, 0.0022963633153863495, -0.015498306648553272, -0.022441822460052024, 0.019615748427464115, 0.037292330035346405, -0.03962418497182943, -0.053963207547670346, 0.004961422357188051, 0.030877750039584897, 0.055412737557554104, -0.02357996373468998, 0.009536102697898896, -0.038150381363914826, -0.050929314251928405, 0.0567522550128196, 0.03966139425049418, -0.01756389317615931, -0.06025639578245775, -0.05048297710409264, -0.01860458957438391, -0.05645971071056435, 0.0260119709670406, -0.05285746827247285, -0.060054628283515356, 0.05314813009337079, -0.007817886148229161, -0.03340144719784734, 0.0024334119303903654, 0.005531453428563551, 0.016353649018213987, 0.02981150285642211, 0.016574029718116425, -0.036963731718175824, -0.02565792581177602, -0.061434194927345934, 0.058265284774914744, 0.033607666317984175, 0.05136502555645114, -0.05384016486639343, 0.050220131763605985, 0.0070043483592437325, 0.009036619695242703, 0.04015309407517404], [-0.043412544653744584, 0.05311484452477284, -0.0034493384709649525, 0.008217151602346496, 0.022072741618587667, 0.023364372996913355, 0.059143074138726215, 0.008751021953659326, 0.014653785128790979, -0.0023876225948469576, -0.04922146941494983, -0.018729717962839662, 0.040991119752951666, -0.06174848389922156, 0.037912515980141545, 0.011695639848028232, 0.06101658743153084, -0.023849238764480057, -0.06241874748027089, -0.0431263943588592, 0.057849724533845744, -0.02198734946503026, -0.06078960045091185, -0.0032852047855491937, -0.05694361872540044, 0.04949359489314641, 0.05349730560050152, 0.06123124906835165, -0.0073194660632367415, -0.04474944208518421, -0.03136528710012481, -0.02359010141275187, -7.274813452613242e-05, -0.027348509887848656, -0.05509127366800297, 0.020291848331371702, 0.02577852287769999, -0.031019300057495917, -0.05702370177037053, -0.04770517063382027, 0.024125683881603147, -0.03155826578202127, -0.03917712751313938, 0.03772505015140879, -0.053964555773344663, -0.05917266103508216, -0.05073329280314981, -0.013539980234939634, -0.04620123622205301, -0.03302861388445161, 0.038175444745004415, 0.034641331486835084, 0.03452779284086321, 0.055206758190764815, 0.017719494534770987, -0.057212268230480805, 0.03747016848506866, -0.008086055877905415, 0.013647080331946879, -0.025388832638363692, -0.021590650276931286, 0.026225717826239968, 0.05012241697132383, -0.014658205539368327, -0.008832295015904556, 0.01890015702015387, 0.01078478376102714, 0.014548152663925387, -0.01461366754613877, 0.04526716788125153, 0.022919651395018052, -0.010041253448150642, 0.0003357946231335183, -0.02272832544120214, 0.03728153805084461, 0.02134525945311464, 0.023080857322318907, 0.03879649660638902, 0.059037281711466674, -0.010123684439597843, -0.041354011056738284, -0.028147898531169512, 0.025132059106163625, 0.023920458867131494, 0.017391627309343672, -0.025049207649916132, 0.025309918117194203, 0.0006237557989246145, 0.05464245720294437, 0.04047007757674788, -0.05799348205296664, 0.030808314454872518, -0.05980342946443045, -0.012446022136424482, 0.0189422158641153, 0.028894456699520482, -0.019804832444117165, -0.02003584880701054, -0.02291870524536543, 0.04754878647214661, -0.04518535523163321, 0.06138027394555762, -0.032484199571873124, -0.047824041444746494, -0.024393883784726077, -0.025951601907276804, -0.05537068543654568, 0.06084282128422154, -0.025732944804850767, 0.014241328854584116, 0.027957129650797507, -0.05063333440143357, -0.012704714067983073, 0.03948227734233057, -0.023116449117342473, -0.0064637976671201094, 0.012122590509027207, 0.050954523744884656, -0.04200894388865886, -0.051958809761923394, -0.06372456638358834, 0.011549808613733031, -0.05522474091817524, -0.011700808189400244, -0.050228304698382846, -0.01132439595712065, 0.02831798565757573, -0.02730092607565696, -0.035523415407455766, 0.003482600167382261, -0.05573706345353002, 0.05171559666698036, -0.01671642540695273, 0.05102932381235869, 0.06143963250151103, 0.028522304095894128, 0.022989349885962698, -0.012464260279717016, -0.017492068484291204, 0.013232497533484391, -0.031054852964271858, -0.03258551116869257, -0.02447459371073934, 0.006502937426071823, -0.032746368030173834, 0.0034064663779647735, -0.020886683918711835, -0.038579456225600606, -0.04666417390723615, 0.0034490357717610336, -0.023487746025174998, -0.01426748137782893, -0.013302266845157455, -0.014067500165540897, -0.018411483704204767, 0.02040089087669472, -0.013503575926076017, 0.04693474018709035, 0.004878886732507746, -0.047548388455325934, 0.014765740170638765, -0.03895544751364216, -0.04931244601958814, -0.025399178666626752, -0.011611288598172335, 0.014251642226747378, -0.05355691612980359, 0.03208755568319072, 0.012071430451805231, -0.005525905850680388, -0.018586586617541367, -0.041742801855619543, 0.013876467571863057, 0.05876747831448495, -0.024443780575987454, 0.011128739081414499, -0.03875380541495976, 0.0015437990692975, -0.005729982075771842, 0.01303070540333386, -0.03678092948631042, -0.0439059073129075, 0.04889766567882938, -0.0006990448176125927, -0.02144392013160496, 0.05880727915438871, -0.018437361349850637, -0.04095917102994958, 0.05908319389179471, 0.05525465634048159, 0.01506010185821963, 0.00013990587264104502, 0.025843395412385645, -0.03264504029341573, -0.024145458045926896, 0.01097937396847175, 0.010407499183760157, 0.04297365920212468, 0.0022966177220809497, 0.01306664064118154, -0.025809249385971816, 0.053204039081174194, 0.05872098855799649, -0.04463054881658162, -0.042515592449968366, 0.007816743816697594, 0.06057650247027618, 0.026211213671729273, 0.03915012427083211, -0.037100826170772816, -0.014031843295314062, 0.056057280623519265, -0.03184179177109767, 0.061421733608897855, -0.05729199520320787, 0.052551115960451686, 0.04951765812821048, -0.03466839111987392, -0.03050870393072251, 0.05329293767248926, -0.055572489372339905, 0.03107565223605481, 0.02248919206310801, 0.050475192555566685, -0.035266867331916245, -0.009549384932093574, -0.06153552587339602, -0.005116594328435351, -0.04253186171238586, -0.052007728499954095, -0.02414784855338077, 0.012653060261997752, -0.013988917845375039, 0.04389790585991302, -0.006528200352584672, 0.033819991792080305, -0.01674417674210666, -0.028301465013115545, -0.03627727902890859, -0.05458353735326094, 0.03035753294993248, -0.010290691174874994, 0.05005481738416328, -0.05816991196480989, -0.04686688395567439, 0.007273659361019965, -0.030736533998636642, 0.00934076345671839, 0.05823031496483065, -0.043080661898728445, -0.06229081050372984, -0.036095548444307755, -0.04589754199001506, -0.008179710341149888, 0.005887165370511043, 0.05472641914820863], [-0.0015962194834488927, -0.016113258816697333, -0.04905053380103552, 0.013731773187433193, -0.01540584597347506, 0.0043276424983592, -0.029599605733151766, -0.05872996921327324, 0.03904289162583508, 0.05660368078742522, -0.02977404497631915, -0.048881291954476026, -0.008711223811703032, 0.045390525634853865, 0.004612102334772519, -0.0006524768595651631, 0.029733259410143563, -0.017844200470828162, 0.03242173868354894, -0.036116808268266014, -0.03942673571389453, 0.008969844523519253, -0.0035931914364710324, 0.0401229041800241, -0.028198237948010182, 0.043844795962155125, -0.015258100139440527, 0.015152433077714833, 0.044756345180611175, -0.04482685028369228, -0.03472129124446832, -0.01382918010083944, -0.013325889259763168, 0.009655802436395949, 0.06103137289346409, 0.040081984420460584, -0.008509500577564876, -0.03823501219044985, -0.04616643058292551, -0.05403762025015425, 0.04456952859691555, -0.0012635691933541816, -0.046821943205346314, -0.053596348134007384, -0.03133645766705935, 0.007515698041326372, -0.042952461045079056, 0.003775910936348201, 0.021817653909227023, 0.008085571074487615, 0.030558516129733506, -0.01252410328202407, -0.03536948416890382, 0.05549480313844758, -0.05833920752284169, -0.007084107628602744, -0.011147317675399344, 0.014703774938363744, 0.0397657497589875, -0.05757021029099169, -0.043422390796110606, 0.0544500036894702, 0.03980495346086528, -0.02306224673818067, -0.005109774378023573, -0.016342350829580347, 0.015333401467177866, 0.04508867207733031, -0.0028199924212075128, 0.0321608451027702, 0.013099259879647426, 0.040811071167022414, -0.04595172151681426, -0.014044588397959969, -0.0454055859555276, -0.026647414327072527, -0.005969973617449786, -0.04500415358576828, 0.04992446681226081, -0.016015352090283794, -0.014645265951768276, 0.050304347280268225, 0.02452351802120474, -0.05629055178180592, 0.0005651731514478405, 0.05056821418795351, 0.012894719321260592, 0.020350975634398267, 0.030238376636201755, 0.026038531647182117, 0.03280963895766818, 0.022229914015445367, -0.05599192639207501, 0.057642012228884765, 0.018720160238413382, 0.04181489295403035, 0.03645043711436615, -0.06174636559001577, -0.009702694197311006, 0.017319638353053463, 0.014244711074417715, 0.019428130464671817, -0.041663785267125227, -0.010355439510714335, 0.008982263393574228, -0.03581521347222362, 0.004155713772909717, -0.034177896891759096, -0.017905688001351398, 0.0354546044416074, -0.030143402234145897, 0.05090661882921698, 0.051360233132000326, 0.0259230841703943, -0.007346443796017762, -0.03838135939417429, 0.030384983033156416, 0.05331750398208213, -0.024056368249265228, -0.04747993945067075, 0.004928153688509781, 0.018728741809274984, -0.04410239261695125, -0.05863947651199761, 0.04878353813986952, -0.023811585462852638, -0.04744037680153325, -0.02868248789051982, -0.05996490102794558, 0.006997614956973933, -0.011221844194476136, -0.053033528269297026, 0.058648507711789304, -0.04855388487713058, -0.02910765929563004, 0.03573405913103112, -0.005233299745517734, -0.05337329890776191, 0.057638880744115994, -0.03574427307139777, -0.06239775063282811, -0.03144506158406228, -0.017218675102597596, 0.01909097920257183, -0.018148809986573346, 0.017643551754940583, 0.042357033014684964, -0.010981084465044104, -0.04318349899863175, 0.02366411394900493, 0.027482504330329453, 0.050201775338576955, 0.04903372810456644, -0.061829914875166564, 0.04692052867299636, 0.05329637164605719, -0.03239364131102628, -0.053023604546208726, 0.04727987390769319, -0.036198846859881076, -0.012119489975137222, 0.057997368792222226, -0.05938301752017434, -0.0452273975045638, 0.005047107003185628, -0.06218000352731669, -0.030135697056026083, 0.045719609601670555, -0.008769637786420143, 0.0325408680095492, -0.03529157037708183, -0.024773063639863417, -0.04591105162450829, 0.029895793410345893, 0.06191446204208693, 0.053803101012770915, 0.043955966102059554, 0.022643367642977665, 0.03550395192059274, 0.04294776141006873, -0.018077919961118908, -0.050516356569897516, 0.0248388837207348, -0.00023384325676020375, 0.0229947486307346, 0.0035782157789574854, 0.0028145180965491595, -0.005295645178021321, 0.030536614164739986, -0.01864504645455317, 0.011275567648383646, -0.026093760727210653, 0.03700559274284324, -0.04851157484063297, -0.022172412304190314, 0.046031146537532174, -0.021264401151622057, -0.04928740077799849, -0.012889209551848095, -0.0004644182244204935, -0.009545924207418226, 0.022702767060503892, -0.0074743835540656955, -0.014551443279665741, -0.03674419173536728, 0.0538309187079315, 0.006738987492498222, 0.01217798893317402, 0.023745332401609903, -0.03344333825395995, -0.03850774278403283, -0.040080809255044106, -0.004349526082592852, -0.02022902908599748, 0.010904909099040681, 0.045134718247926246, 0.022728197948403944, 0.06027325258379945, -0.0009178064590510237, -0.05624851405488118, -0.014558737116726183, -0.04016324104732478, -0.04118363302114424, -0.0019949145983562885, 0.015804147821305663, 0.02047913563550622, 0.04854195144121205, -0.016439921537249342, -0.02242360976728026, 0.030548633467477958, 0.0364791761529261, -0.0067453034065689975, 0.033677470935126984, 0.03625264228840989, -0.059080617790231785, -0.038999592076409795, -0.013173089143580983, -0.055962708925152115, -0.034929216135456465, -0.023248301565388044, -0.034696924852801125, -0.056515443177216025, 0.059556916173743625, 0.013827960646605231, 0.06387439018797557, 0.038322812211817554, -0.05283167362614662, -0.018646519826167923, -0.005226717502869033, -0.02178007419393836, 0.057384132148994856, -0.007302628514778346, -0.02467066665527725, 0.01865524655510644, 0.015805729985806198, 0.035555634163650734], [0.0483922141427395, -0.0433275929824278, 0.029463879784659478, 0.029338769137848154, -0.010441628131285591, -0.04752751759301146, -0.0025560436616289786, -0.009209644421304933, -0.0557500845731066, 0.03243843012401167, 0.018773498367218342, -0.038718318092777114, 0.01271484137151234, 0.038689920175709276, 0.014386792484751098, -0.02376583095109224, 0.04257757283322482, -0.035546175748697686, -0.048915335793097224, 0.06223051668298248, -0.056261106887357894, -0.03752685400770332, -0.02693301760255336, 0.03131638972138201, -0.006316117522277578, 0.012320302975915982, 0.03905048251179882, 0.016182373531624838, 0.04668554092447553, 0.0434075491653217, -0.04498764838831194, -0.0026535836496643897, -0.03705619549730274, -0.058013457071126526, -0.001966042684316096, -0.035985939803443084, -2.7448241282220243e-05, -0.046587004994839004, -0.011708847441026338, -0.053321672201298166, -0.03032141744777825, 0.03612337801382956, -0.030586483999956417, 0.022823463973114588, -0.014254227747420673, -0.019554305721088825, -0.041966541583938324, 0.008068553624294086, -0.05068183313314271, -0.029521826343677796, 0.009560541497239184, 0.01930612194686974, -0.05216244039663342, -0.01586145823453266, 0.027238043261965973, -0.02564715794335769, 0.0495520463746362, 0.06084821787123839, 0.03604321247519056, 0.05912719184785715, 0.019887704405555852, 0.036653192330067724, -0.056582271494102124, 0.05877945670259859, 0.03151129660704557, 0.012471777442226486, -0.031679878249220084, -0.05757483115466983, -0.009419647788140684, -0.010346541706142982, -0.013467822070510829, 0.05617768447024384, 0.022239410036400682, 0.03051421714988496, -0.05488295773921762, 0.03745465483527643, -0.0549519640347174, -0.017691870165083178, 0.04805961247065865, 0.02690331047938037, 0.009061945094814094, -0.0603748055230562, -0.01665050437157346, -0.00030090819122755724, -0.056409172034370944, 0.00036944472592239486, -0.02831478474023281, 0.017391351671828068, 0.05026064611064506, 0.03414663135703292, -0.01702580684480887, -0.04934963323129417, -0.008357745198700871, 0.005617178252100026, 0.04024230638498435, 0.047443289519009016, -0.02616421671240749, 0.06264068567062929, 0.021281663992007063, 0.0021940049846759834, 0.06123326123985111, -0.016202321441812675, -0.039316403316053766, 0.0054181809573829376, 0.05575038445535118, -0.049027395791950736, 0.005531172823338379, -0.007038059878414549, 0.018558635408916297, 0.06221309031125804, -0.007276372990852233, -0.051936674128310094, 0.059029973864863645, 0.026411383111742997, 0.004574827451650703, 0.05972840114375601, -0.017765974716578134, 0.056832888407325595, -0.029071971393932493, 0.04572182171260088, -0.013069781487228873, -0.016648939989297454, 0.03589029871827334, 0.05758118602756382, -0.03631967939453513, -0.04477495224929444, -0.05272328286225317, 0.05967565292513977, -0.03853469677450395, -0.028673127327468687, 0.051496765321289883, -0.05944789303270921, 0.05747302583292187, -0.04736859590241863, -0.013617600012980756, -0.025837064159007748, -0.05594322523359896, 0.05700976930757063, -0.002216511987337798, -0.019835446732475948, 0.04558550920465945, 0.05447966073868028, -0.040748307478089975, 0.021742669348843707, -0.05459351316375593, 0.05360699696834843, -0.04869953208064372, -0.04759482829696704, 0.04710859814205954, -0.01702393061138515, -0.01225733955921754, -0.001959791060931265, -0.045473225761832936, -0.026909982108839575, -0.05189294028712915, 0.037076332724923805, -0.03964009641395445, 0.012892887123541679, 0.012399303111020324, -0.03226603146474295, -0.01462420110067784, -0.023490689146910798, 0.020711683306125363, 0.05810920735489955, -0.05439360600415948, 0.0051097825870421, 0.005838239003263691, 0.004782733508602099, -0.02654146872885843, -0.0624193639382132, 0.05221584919163449, -0.06049208285449245, -0.04355581828136517, -0.021727590217865824, -0.05783376953422777, -0.04206043917838851, 0.025708890629676195, 0.015516658404327328, -0.04079795800847651, -0.001875155753909412, 0.05539770259757892, 0.010529491010046044, 0.03369569612527165, -0.007237640176219024, 0.02852453227351401, -0.040506213162101734, -0.055265725954307635, -0.04346807973712557, 0.03376093578853909, 0.0578650574336305, -0.025949913521787115, 0.03897063624850565, -0.01161524048835041, 0.04782415900475316, -0.04502942865278269, 0.03871085344243095, 0.061967803383485905, -0.03375791879884008, -0.05259446349193244, 0.008920424050586798, -0.0247865446068077, 0.008025048918066088, -0.0432566735807516, 0.036284667165998145, 0.01857070567440958, 0.037503348264677355, 0.019715496493820317, 0.0505875299858159, 0.04264068045927049, -0.0480435181953661, 0.03962454776514295, -0.036467798048466435, -0.018466070453853362, 0.029159637411912343, 0.047074059525521815, -0.048196369446405145, 0.013032786154551472, 0.03644210571481689, -0.027369854582626914, 0.04979280060654448, 0.01360132178511141, -0.033065811518239514, -0.033019119402772475, -0.06119151313907827, -0.015349429873600126, 0.013511082880645743, -0.053578763085666344, -0.05063547472579381, -0.013833803786883167, 0.008473964432877838, -0.02366873575883778, 0.011752653164159617, -0.052800843045287406, 0.01150889849457125, 0.034543628944675366, 0.03849782561725488, -0.03516510381877755, -7.691626667801589e-05, -0.02484389490406506, 0.05681337382984961, 0.0018709230215631747, -0.0510852317491256, -0.039176129350530574, 0.05698085970976326, -0.018798089940027657, -0.04181773701367656, 0.014759888814524913, -0.0251724146293119, -0.05711519943046942, -0.06163332280790618, -0.05053220898574121, -0.039153902444031344, 0.0013096588838239023, -0.011669583683419736, 0.017420826818837484, -0.020527227241059327], [0.060328344549795104, 0.061234455039006146, 0.027775529700966004, -0.013641840770372912, 0.046656815391915955, 0.015838759112650747, -0.0032350196231886166, 0.03263178720232198, 0.05114722644332386, 0.01699579808054283, 0.017394158406855795, 0.06195461961272403, -0.008556374761106617, -0.05634379894502596, 0.047738080132247965, -0.06172092601937664, 0.04123588023239796, 0.014287086697791282, -0.013846652314713935, 0.06047949209498641, 0.01937265662416454, -0.004074623256975336, -0.02542584922797067, -0.033891664051198214, -0.04335953241760709, 0.03892578915510767, 0.014613180209779631, -0.004094426692200278, 0.0069029397999605955, 0.00026178118978703217, 0.045847735797909905, -0.001397280334554372, 0.002308914891510208, -0.012722724507675698, 0.044469280830698246, -0.020989372831332766, -0.06205600510068765, -0.028842274612847437, 0.021999323106498818, -0.04551085920500432, -0.00321514530379958, 0.04684345968762888, 0.047567607415080274, -0.05073121952266076, 0.0071170778593002415, 0.007601968907679209, 0.05821543477052495, -0.002875931011885018, -0.06180435557900329, -0.04952028667123998, 0.015088345796752231, -0.05790812118490775, -0.005964359881251591, -0.0021697515177367434, 0.011986565655870897, 0.009874111093006588, 0.0470649326807716, -0.022466852377599746, 0.03191292774288184, 0.007093008181953001, 0.058346660850741805, -0.0007319429451472279, -0.0073281000827671305, -0.02319055806332309, 0.043568583335298845, -0.055369421772545016, 0.03852616318857735, 0.01439545190143152, -0.023038913968602047, -0.0534129226199833, 0.05336881640907561, 0.02794214057358983, 0.03164482619969291, -0.05033182768712995, 0.048418481918881075, 0.023082332669831073, 0.013169577022663416, 0.021682260158033283, 0.03250770804590556, -0.007546827733353252, -0.02137540097635316, -0.018673361044996274, -0.05413285372242655, -0.0008395040535989087, -0.01804573399999501, -0.026412057184522154, 0.015636348868313745, -0.010568709814758687, 0.06255740542233558, 0.03167070369920907, -0.04171840147164027, -0.001158982079418118, -0.030158598893044966, -0.015278471444449774, -0.06132200606137892, 0.045788219153527106, -0.006237101473709635, -0.05427122370797304, -0.01530272999999816, 0.06201309186661036, -0.024669056809885816, -0.0183358104191226, -0.042065885747071145, -0.004539627678759311, -0.053752069223089664, 0.026618770025006244, -0.015081824958605697, -0.05314773834716495, -0.02960075157748467, -0.003501971607501638, -0.04507848390708213, 0.018962188533543204, -0.042531890530229474, 0.0015422680433122826, 0.05513778850352777, -0.0316030707191225, -0.0025142849383415974, -0.03668719592661986, 0.047095443883840814, -0.028564994922277456, -0.04782560624723131, -0.00544390695735277, -0.027913452601477477, 0.019612628756924124, -0.05186713954661413, -0.04757600561944814, -0.012086957235312754, -0.01703301503303571, -0.019029716885244918, -0.011304870570556097, 0.055365679153432774, -0.03199794840644885, -0.010404759819896298, -0.03965103940499578, -0.03711264673425446, -0.038191575424534704, -0.05351791200867952, 0.031921574212754045, -0.027595353239724247, -0.005406716104977444, 0.05465487670202396, 0.00453519052316035, 0.012683860811627303, 0.006945901219215991, 0.06089912341481324, -0.048256297053968125, -0.001709488163155019, 0.030238646352908505, -0.013607104061338013, 0.0360932321563717, -0.037405949547804865, -0.04934807049194391, 0.02511104090166782, 0.04784952297546099, -0.02154564183329387, 0.030531175597246486, -0.01940666748382086, 0.02388429895602585, 0.005779597353690794, -0.036340973966813205, -0.03993368210271588, 0.04846549366250927, -0.016591479496760077, -0.032209990355910524, -0.05349499719024675, -0.016045268226934497, 0.031237543242073774, 0.030428900702604057, 0.033495754559347474, 0.046395303539280376, 0.038202966467750114, 0.03374716948726669, 0.03279654486676443, 0.060838884993639715, -0.02466817878164152, -0.031227493531123033, -0.021030103650741653, -0.05674880658571576, 0.05704885719605588, 0.06051898182131242, -0.05068523620967105, 0.04524315487387425, 0.05429715129408917, -0.02584602354411607, -0.05720050412031971, 0.01621387403708868, -0.025658642620621053, 0.029897774669626363, -0.044134300776666524, -0.056756650711411734, 0.009907944673690631, 0.06094091860053628, -0.042759597985272714, -0.03366088149764981, -0.057145716912986796, 0.04865799770656272, 0.01792775742802483, -0.0048063097642931955, -0.010123921630765337, 0.03742804423275183, -0.002322801675928723, -0.02492615815937536, -0.003937880189080406, 0.035719356674668086, 0.0077298505646029615, -0.014524090122288278, -0.05475943839865805, 0.006706151415419469, 0.04172280525834526, 0.009051974296315055, 0.018996830476887123, 0.005032729450762765, -0.05306685565745717, -0.006943981026681095, 0.031041803648599334, 0.018171143256301852, -0.029772298224167253, -0.015932907477553496, 0.05352915463399163, 0.05475858412329202, 0.03567566582746615, -0.045500415629980286, 0.03065551883437488, -0.006030313659851287, -0.05109205755067163, 0.06048494381057089, 0.05081524711884549, -0.043870282866841574, -0.0032593140877463225, 0.03275100970456136, 0.027704951624099448, -0.05970020290630925, 0.04842886735453483, 0.05522829140410886, -0.05774583800150605, -0.05202420613942284, 0.05034902076814463, 0.03787256387615215, -0.023398220180001195, 0.054849238224733775, -0.0343289613505454, -0.023189949483137143, 0.04613776828454469, 0.0032064750528299577, -0.028014800745779233, 0.04372574100605856, 0.027637505372455375, -0.01225896086225519, -0.02354748947361179, 0.05456510712792038, 0.034571014003252715, 0.054868420218212595, 0.04078610340757013, 0.052554387243510886, -0.0063784234399235735, 0.006468706828869957], [-0.01914012542670993, 0.01139816334208034, -0.013014757988644831, -0.05988693461640944, 0.043698672833723945, -0.023465045054999665, -0.05379330084193797, 0.060242141746569784, 0.06102790090016615, -0.026159294485614753, 0.008243755261535195, -0.05754723049887949, -0.05915858805464107, 0.040408586202428154, -0.039879310301833996, 0.006709152082355943, -0.0231483280822216, -0.030716163483379397, 0.055619792143103725, 0.013043812465405999, -0.0489992818141421, 0.010832336565530176, -0.01855482148963258, -0.034899028292124795, 0.06232312405245101, -0.03326750920340156, -0.046658002992328876, 0.01923553870534858, 0.05773406725967866, -0.022690737076634392, -0.03335361559571404, -0.012166854747955246, 0.053693057084799475, -0.017163123952150316, -0.0027055066201905303, 0.014795964982911835, -0.057871943146564825, 0.04258854322489926, 0.03317434624670363, -0.03442430708045773, -0.047947960800588385, -0.007136517975969344, -0.018291329594270826, 0.04057422774173299, 0.04787673267019327, -0.002080744698385548, -0.01208986861011903, -0.03396828314109743, 0.06217837687957361, 0.03784432360574502, -0.03391491012302826, -0.0616333161624517, -0.01242657596976194, -0.0020938369360333398, 0.001813495681644364, -0.03290380425893409, 0.054915566382804475, -0.022719776476678024, -0.04908330829659913, -0.02824109426925584, -0.039918924070619664, -0.027654574876628233, 0.03836508960411013, -0.022850430961488886, -0.010727686422020556, -0.003744451282368192, 0.018264396752972176, -0.055521523453015816, -0.031085914178471574, 0.05585341860492026, -0.058820860724945474, -0.043852048233729346, 0.056326986700130886, -0.04261754978011802, -0.054387047057450476, -0.011099434249081637, -0.04040228249300347, -0.018979870587483218, -0.015201930076474461, -0.0005286865973359265, -0.03280965383781754, 0.014873395717744223, -0.04692284642026267, 0.005051104646256088, 0.0012918383211082862, -0.0019418646089413585, -0.0020503097566440857, 0.055617378621868475, 0.013723522358293197, -0.017314016049150345, 0.0019062902007773582, -0.0235931307537265, 0.013737137418027016, 0.022480964467976327, -0.05585298857475836, 0.03352176890035234, 0.04607491822500688, 0.052812191785784286, 0.05254280238429613, -0.00032665581875379514, 0.020533766413740547, 0.04239559612341314, 0.05699100683764065, -0.0445047702780987, -0.0030720899405088813, 0.03028995020595456, -0.010014625424739491, 0.016439532912589164, -0.026049707448804617, -0.012636366786883856, -0.038442530801097004, 0.008052963392822302, -0.055613152683581676, 0.042208525185535174, -0.0616240938219375, -0.0010249307373705176, -0.030475488237880072, 0.046536808032333545, 0.05557276470510019, -0.022398193019665325, -0.022906581175173933, 0.01672854315636969, 0.062345148567087096, 0.009890426964670521, 0.01639571606636265, -0.004148822834270798, 0.04681538006395393, -0.013660997175407185, -0.052781214833791834, 0.021622038625789496, 0.04293011919319718, -0.040005027544618925, -0.007907570773347701, 0.002086276010544155, 0.007157672941060768, -6.721327094396424e-05, -0.04939760031891752, -0.0381840583147493, 0.02220085516788403, -0.0589068953082249, -0.020992046549735497, -0.02886172023517465, -0.0021479483277432447, -0.03177399026131335, 0.02453803283503747, 0.05197229728194373, -0.0253736261509977, 0.03331706707173272, 0.03600919426567656, -0.03784742245846519, 0.058469825242950337, 0.029048394787775683, -0.0333224082698052, 0.00790909346072578, 0.05609780545357825, -0.03141567425377243, 0.041270938974878754, 0.007986548987047636, 0.007781281004549471, -0.05317003674160698, -0.016232118592559727, -0.008577156585889105, -0.002991706841672434, -0.008028514153903104, 0.018997568164563258, 0.029156356675107707, 0.028217156100172582, -0.005779536342414655, -0.004726971419847608, -0.05358434929867677, -0.034678046284175396, -0.05764346989195662, -0.054530849332128935, 0.05530937762881004, 0.017192510933373397, -0.04010425033558345, -0.02166631873834707, 0.023634811560807847, 0.0006857610221322382, 0.03734496191666428, 0.04840500034836293, -0.049478123362998526, -0.05667002854925059, -0.06036719902250636, -0.033101785838092125, 0.014303481012012495, 0.008875902079459241, 0.022413112821536744, 0.058041301808258505, 0.03760007556417546, -0.027373656805789563, 0.03864555207611858, 0.015732280388714125, 0.04889917311955231, -0.010999198149435, 0.00994388606042495, -0.013545249386951149, -0.06059815970199984, -0.030315506769908917, -0.042780341739471, 0.010371785745660687, 0.013301782687500202, 0.028672312152786438, 0.04504278937038594, -0.05372897312259138, 0.04993894763285381, 0.015843423028909134, 0.0031410296694255047, -0.025753836721417782, -0.02242950376170516, -0.059473914986354535, 0.01628733623526229, 0.02745717439431137, 0.023348534384202375, -0.05647132368932821, -0.010110045604607277, -0.032419230992504024, -0.0071823760921171775, 0.04010640153665659, 0.019017724480841786, -0.05037110804160632, -0.04705058169254456, 0.005295013866443418, 0.036992403183223915, -0.018177809585642902, 0.0007036311291176609, 0.029695496744457497, 0.06337418406973151, 0.019925884255129686, 0.008973694950734596, 0.04694375564386586, 0.02512728091425413, 0.04049293198239875, 0.008194038826905026, -0.04202001972422499, -0.0005479774863898285, 0.005374398913248181, -0.03882429160671626, -0.0487085224015466, -0.029831925816939154, 0.06115761333874138, -0.010935619387780711, -0.014688619194562434, 0.03714762268185973, 0.04797519920166817, -0.0522469030359618, -0.03108431299599371, 0.016282488921685278, 0.045037452348522154, 0.039264179166824204, -0.020756218540934023, -0.04091209121293755, -0.016899941312373285, -0.014673487553688913, 0.04947987959692381, -0.012159406730969224], [0.012070720738650783, 0.02495590686376091, -0.0501374841548718, -0.04171421056665485, -0.007433977776409767, -0.0197171176939575, -0.04578451111606392, -0.05041519078525854, 0.04696616305780223, -0.00735406581963604, 0.0340144041765897, 0.03202831310078528, -0.005757820241467282, -0.02207970900664722, -0.017964939691130923, 0.05261608130837025, 0.05189205001564073, 0.04947372989310423, -0.04729675558781435, -0.01652146605479856, -0.0036524414221253995, 0.03826778469014313, -0.02571148539299805, 0.02799511674081336, 0.006976534062661124, 0.008212091443527712, 0.02589586930559949, 0.01187753425116951, -0.029645055566573694, 0.0012079025636435369, -0.04911880486648156, -0.03671387071421578, -0.05581212834552259, 0.02181267550494191, 0.020680745633262547, 0.01220635415846247, 0.024211230270585832, -0.05236500747732287, 0.008538959362397945, -0.02528041076122591, 0.03287938033682198, -0.032961956606299164, -0.057061053240010214, -0.029152945311883297, -0.0075081204006560215, -0.02867191799280896, -0.021436453615697737, 0.03938841047639915, 0.018873499805363264, -0.057305691869485066, 0.03305255909032755, -0.05567544159092301, -0.055354248299691745, 0.008468764262971587, -0.02737312406164757, -0.02929623901082897, 0.02100711877573616, 0.02460929350980682, -0.04269664613596949, 0.007695398184022656, -0.014449856668492014, -0.023695667040761054, -0.054172027745078725, 0.05546438773068002, 0.05602572725690236, 0.007453032040424048, -0.04931605415553931, 0.04434693647213399, -0.022577788447858498, -0.03295282637234246, 0.007855415665982711, -0.03997134798596777, 0.04363251210099919, 0.016755129753124105, 0.032683576807069334, -0.007143851080451083, 0.04674617698781928, 0.0023797213834988898, 0.012742132221769035, 0.04802576728162374, 0.04564566145788872, 0.004918356551624652, 0.047958843365111276, -0.056735198307982335, 0.017780283048884474, -0.024049844817591086, 0.02236016477495769, -0.03611302514439381, -0.01806041287567513, -0.0221521787415564, 0.029830379985676975, -0.05950306427478985, 0.01204256805478416, 0.01945524360900817, 0.037449146779745805, 0.0027139303867244466, -0.047428753321901995, -0.023644997340372908, 0.015638067559637748, 0.006291136631713065, -0.03937369595749882, -0.06199446335765966, -0.012143311253464356, 0.007324595528114979, 0.04113327367000268, 0.0521724704091504, 0.06003877127456, 0.0027059727721769245, 0.040394760395075065, -0.054775154803764985, -0.009551929700842142, 0.03365637645144476, -0.024397968509395986, -0.011598802627418942, -0.054628224853554966, -0.045772285518301016, 0.024824334374488898, -0.03423257302668325, -0.019079770519971152, 0.05701476081778867, 0.01247651203387571, 0.017892537626288788, -0.030399329878798176, -0.032765445025614716, 0.05524274014671416, -0.012531196449395876, -0.00035157647209175505, -0.05598736522292886, 0.0606243344648331, 0.035467223975956426, 0.055863146835189656, -0.016180111841025347, -0.04764403080949982, -0.022100873117216053, -0.02648262076061633, -0.04353941536192036, 0.030952695428672194, 0.061872989269912713, -0.05903097897479573, 0.003311158104271031, -0.052263929125780186, -0.016545441503657266, 0.019972359919709227, 0.034637353043406566, 0.0383233349509424, -0.05631763622337224, 0.05301691171423796, 0.016592156107292075, -0.04246342185283678, 0.03287523748815324, 0.006150662393315394, -0.020792338009375896, -0.03356623443034038, 0.06170097689313506, -0.023952603887764812, 0.032304762951473706, 0.0241966036073944, -0.013726639710824846, -0.0010280138695457363, 0.03731802847509448, 0.007069925243439122, 0.022552670108604823, -0.020232524967120764, -0.05823809216557922, 0.051281217285993386, 0.04796302291792969, -0.024274887975923292, 0.0174466715780575, 0.05811846521553541, -0.01579069356993584, 0.0004389184701855318, -0.025326685916726516, -0.04397582202153504, -0.015122511324624503, 0.04485034724095505, 0.04973186296686353, -0.02548568526195295, -0.03320514442549034, -0.04984787800105039, -0.00870905011000292, -0.010127891913838023, 0.011627760400653357, 0.05632952967794981, 0.012029060846648593, 0.05163678579243401, 0.041137161282993946, -0.03071071349616738, -0.005582999083031999, -0.021194460350424934, -0.00694325167118026, -0.029002072699703164, -0.03354123534272082, -0.00972460656578453, 0.009548236900081629, 0.006851332641178161, -0.020085370537468554, -0.02355295203007067, -0.0491449693336112, -0.007884184880917845, 0.013318292480558198, -0.038786751803573216, -0.03756422667721952, -0.02822182887495979, -0.002775379303162422, -0.033747169691298116, 0.009924841573584364, -0.03810328719148486, 0.03863205981602034, 0.034747026800970665, -0.05046332062783727, -0.030228427426598137, 0.05654000007041762, -0.020853674794515432, 0.018566047919290143, 0.01424345849018697, -0.009719094151359952, -0.04389722102049971, 0.027504734619800488, -0.0338488452494744, -0.0008320862418913289, 0.005063800440355374, -0.011652917452663645, -0.006206441867394799, 0.05912564363933385, 0.03059089529291397, 0.05216734803810988, 0.04971651106819952, -0.049563193917883774, -0.05915037899532202, -0.041005284039557235, 0.009323257466115231, 0.010943843952703909, -0.004171040835591742, -0.034774368695863825, 0.0008576579120965187, 0.0010910050099687363, -0.03159122779574072, 0.05029408602073698, 5.504744910470328e-05, 0.04470288879366786, -0.01902033426617396, -0.0464642394400658, -0.05345784985055518, -0.03595325390636494, -0.03395994056305897, -0.05163041017763701, 0.06282801084792977, 0.0544386382751723, -0.02952196450676175, -0.018011777991068473, -0.04532585572808884, -0.01974643787655399, -0.03390301190917997, -0.05096225855735927, 0.04026116149125727, 0.0447284560698954], [-0.022033615737298503, -0.0616282433745314, -0.03911841289055886, -0.03169525284423652, 0.02966971259616975, 0.05990082535583313, 7.728615060258516e-05, -0.0574808895602103, -0.041094723243748375, 0.03972407498334402, 0.013734716021674984, 0.01919270049001718, 0.042160135645475355, 0.03750646376841897, -0.03110478919023272, -0.053146738145446244, -0.03864194218660882, -0.03469037568306236, -0.029952574566976944, 0.02799558333287673, 0.046239543213186324, -0.021324382815847785, 0.058396057975499516, 0.02221021701656038, -0.007746217299417567, 0.005195582082601514, 0.023333229062053002, 0.03864191551874553, -0.0010953285978012105, -0.023558007042945778, -0.022853442931289977, 0.044048291982631826, -0.004899685081881844, -0.057546743505129436, 0.03489233045100016, 0.023911178138222824, -0.05405968883830812, -0.04004542164491317, 0.04941399335299324, -0.019717271727798674, -0.060530265564102084, 0.05687349266061485, -0.02908621602960979, 0.05660188211861025, -0.021870797578325323, -0.03978946166410676, 0.009294985889887393, -0.039939324083609916, 0.009765461635714323, 0.011387260651408515, 0.0058501348676686165, 0.014889234117995812, -0.0008025376092948153, 0.06055489850039449, 0.03520452306613462, 0.01566188358549408, 0.02199808828678021, -0.03755864478956589, -0.026927860036673065, 0.05314870279237487, 0.023840362323130006, 0.04470655730850982, 0.06119154831792798, -0.04215514135545142, -0.04671278852169496, -0.05801778427308295, 0.0034938061332599403, -0.005486383347002925, 0.014757164818510755, -0.040042947490845957, -0.017262579594517408, 0.03820728018602062, -0.054919469566444855, -0.029679578733135363, -0.0033145648521582796, -0.029807927654585974, 0.03446771913605431, -0.0011682566369644464, -0.029958197148038757, 0.006564232531736547, 0.043343273477090986, 0.041788752609737724, 0.02328881633722123, 0.006195430679642222, 0.03857444861819787, 0.05996932188277025, -0.052914552365438794, -0.039863439824436825, 0.03887069908657849, -0.019365773119969638, -0.0375947615865795, -0.04792408659268592, -0.02539538299280405, 0.005108340311198229, -0.05103471222810175, -0.045074855487476036, 0.039574975203620556, 0.053020935616146375, 0.04232468234542655, 0.010706994871402387, 0.055465901000112894, -0.04987840146508216, -0.017603102574704613, 0.02062959035782524, 0.02097623968594759, 0.05710702328906597, -0.008964458151698999, -0.02921316073417962, 0.057509599954909243, 0.015043702358869092, 0.023348418753719378, -0.029391447995827255, -0.0063624775450386835, 0.05469198361971369, -0.004266502464533882, 0.024006677556978346, 0.05929018559408457, -0.00815563084250312, 0.05243478299301584, -0.039831552185726524, 0.006118383619389456, -0.04098821261875389, -0.009615935977265575, -0.05614554380035795, -0.0486629541419132, -0.04491098129598219, 0.05767131412365678, -0.026504443195703147, 0.020773300509512805, -0.0035826824948299776, 0.014808806539642758, -0.03559878354420339, 0.005731489496469298, 0.04277914798872971, -0.030778844349130974, -0.046436024701033925, 0.011544395208299613, 0.04581230086634128, 0.022210509460457932, -0.010195546039239185, -0.01954786415605373, -0.06065692800111472, 0.06125901476653605, -0.054689119236106844, 0.050453984270528864, -0.032393808722334716, 0.021341124018214055, 0.042260388657879115, 0.012881867360413881, 0.03254188339315698, 0.03562285580532103, 0.047441834771265935, -0.015553722941371206, 0.052776109289990866, 0.028634518967432073, 0.0333273602203886, -0.05387542615518793, -0.009140602331138553, -0.04025622209450309, -0.016512213960227354, -0.02024398235532165, -0.020507310332821098, -0.0267479701760258, -0.0011432890235009148, 0.05215293639448732, -0.06197485775783542, -0.018858865708204785, -0.029951376607809364, 0.046233936911331805, -0.005804644565360641, -0.06321351160374422, -0.06257967541318095, -0.04877648122591359, 0.006292894362488637, 0.04217166974009606, -0.01273174957924317, 0.04041029480712446, -0.007024334272052177, -0.04327160283950241, -0.0235846606210481, 0.03599967694380834, 0.0013970665946058006, -0.0013842016653397345, 0.05998373198737216, 0.018845839733072293, -0.06127072365030202, 0.02075365507046278, 0.002459818287918334, -0.022082795333485443, -0.03699904913425353, -0.017779069528144616, -0.03286449746469879, -0.04747976094041715, -0.06038582665570334, 0.041585076475814435, 0.017501991741578928, 0.001659740697233559, 0.05824459864095438, 0.03855479826252103, -0.04637713385637546, 0.05076673608008435, 0.037817365719008185, -0.003943173411880294, -0.05038255050459383, -0.04215493692975184, 0.015696398330629486, 0.014597665995864425, -0.01870370621066242, 0.05111100730128898, 0.01230993665503433, 0.02725816855902301, 0.060065239744535384, -0.05206569258921901, 0.011549489876363629, -0.025501347107402175, 0.013321824078849612, 0.007327761425479837, 0.05305195189493528, 0.008466341104731342, 0.05551969513437949, -0.02670717419270464, -0.03617765252773278, -0.02079333160084159, 0.06171142865004704, 0.04986485298391036, 0.051026978059479824, 0.030045159227575058, 0.05644535121029504, 0.02284029988613577, 0.04087519377896866, 0.02527281437506623, 0.02055037656067791, -0.010142694820291929, 0.010743014191823044, -0.012020127686426352, 0.011677034694103998, -0.05114026715893463, -0.04533828655822057, -0.017479263770687963, 0.028954543021646763, 0.05424980412194831, -0.041348728643916796, -0.026507839678037135, -0.030098137520733263, -0.006709818097333876, -0.0529862485986864, 0.04425459009907067, -0.024096090337912098, -0.04548854011821517, -0.024553460533648312, 0.001619445896392145, 0.05520116201549458, -0.0008953447367336671, -0.03879064763400863, -0.052218260417380744, 0.046085853424424034], [-0.05230713767028676, -0.03113921313598746, -0.06250402830796599, 0.027412949345605106, 0.04097285848520245, -0.009296538249187193, -0.060709818078168915, 0.03369590917116821, -0.004332778030427545, -0.04771674368183978, -0.011669999827758648, -0.042824753397086905, -0.03142237428869295, -0.00848554940824524, 0.026231006855256655, 0.06116518018930529, 0.03237823175891574, 0.055518428405218256, 0.025996953719398513, -0.04351419110288306, -0.01433045409256769, -0.02216694593465342, -0.035807614280208476, -0.05541609719284975, -0.03383302979888396, 0.04561146087382969, -0.015456111341918034, 0.02631440273688574, 0.03448327310979811, 0.052315729396584125, 0.023607041119220434, -0.022286777829953554, 0.030344487230326414, -0.04259039312574388, -0.04303698766733651, -0.016374050665047296, -0.030948908228780683, -0.016020999289364655, 0.013660287931092294, -0.0268055895758223, -0.0035971375352696192, -0.021495793429669875, -0.01563675030501168, -0.024812146368072635, 0.016760770373118922, -0.01065303801061117, 0.06090037747248253, -0.026887860417405252, -0.017717191014013506, -0.04734812118297546, 0.05379087553140078, -0.040118303911150156, 0.03866758207812909, 0.05474925603917718, 0.038699483252854584, -0.0275451470505952, 0.00438259479325184, -0.0002831677786347347, 0.0410497715570817, 0.0395532707303835, -0.04361293496403151, -0.04663950628953258, -0.005916888042756543, 0.056164843680485514, -0.00045353355354956415, 0.014438254207290665, -0.02916137925447415, -0.02122268572160092, -0.03261897964970139, 0.06062359464838125, -0.030930787372197528, 0.05607670208161287, -0.04240240714537692, 0.03366365710438048, -0.004166789197326254, -0.023042247454301078, -0.06244349562937644, -0.009449611772754747, -0.042904152836401185, -0.0057302334145742295, 0.03289298373582667, -0.03475573193792459, 0.04964065369235685, -0.005262980070460732, -0.04809445140636393, 0.028058594436719035, -0.0002329710650645307, 0.039660753002939274, 0.010620460222905187, -0.043077511693575245, -0.03307635084760173, -0.05791166843742469, 0.04047503180887117, 0.005867750782298474, 0.03442862503058706, 0.005655372707036454, 0.005479668383155359, -0.003288566982391764, 0.049666992312191835, -0.05104686270522584, -0.05877643506092199, -0.01813666951848931, 0.015432404593541678, -0.006755593572974999, 0.013993813984241071, 0.008969430227272132, -0.051035894021460255, -0.02446291065480821, 0.036934632239396456, -0.022289880936385703, 0.043187686703237534, 0.06190942003980048, -0.05025075432740325, -0.04333078305584614, 0.006643346570480979, 0.013913150738574296, -0.04395244908254911, 0.03184490279381058, 0.002648285515969411, 0.054873892618172396, 0.03025945941296358, 0.05584027895476401, 0.04120523391023765, 0.0032239112911724046, -0.03321106171206784, 0.05019404335967464, -0.03723415135199668, -0.05124493134153129, 0.02182669880971814, -0.007061534945867512, -0.042559681309999514, -0.037768794428371825, 0.041444134929315465, -0.02863179032201877, -0.028120916850572775, -0.01565263958211667, -0.03286592444611801, 0.004742364941904883, 0.05810570338118116, -0.04082386911738788, -0.038137517727042554, -0.0057128385450169565, -0.026352757766495708, -0.05111091063024548, 0.010003832983139836, -0.03795326085436294, 0.05011604190123742, 0.04271018672951168, -0.03579847164044744, -0.018316975892685362, 7.429270068255332e-05, -0.020358984734182826, -0.03460416594779592, -0.05297436953239565, 0.006911896126904301, 0.027353019949298656, -0.060065175832062424, 0.0513637111800398, -0.004359360982534356, 0.028553669414251824, -0.02718360362939319, -0.04839643569054017, 0.02260636410777101, -0.028440314595627306, 0.03748607353923364, -0.02333644829620547, 0.022097350974541755, -0.0253907278256235, 0.033832176199362, -0.05634648976143332, -0.05483938964976867, 0.016965672029690383, -0.05783862967552925, 0.02001842548189167, -0.012551298307328965, 0.01458791696598919, 0.000627851584412134, 0.06120597247666756, 0.05713362960947258, 0.053324640414371655, -0.05234870527321479, -0.05578722593661404, -0.00048463574596789946, -0.04333423754556503, -0.0581314314214022, 0.0468727073499816, -0.04267813238252735, -0.01964253660612757, -0.05745926284353726, -0.027435462912555487, -0.012263349176211871, 0.036836199688417906, -0.022153214808917222, 0.053227861253409156, 0.01243924340932934, 0.057477957876371444, -0.05352324879321335, 0.03564355991577447, -0.037967883246288525, 0.020737030316462474, -0.02521829639248018, -0.04708048176728253, 0.015284568878915494, -0.03665138978564169, 0.054711815279647684, -0.028729290061035088, 0.030785135536224965, -0.048103325320431406, -0.030873655959438664, 0.005108469636483937, 0.031150736320336846, -0.04238148688913977, 0.05957775424059748, 0.023555942111831072, 0.05366654292456372, 0.05511185870862349, -0.05226479001962873, 0.03430365128979356, -0.043820044203321404, -0.005239848207026337, -0.01848864349438432, 0.027920204954323895, -0.05962550863097441, 0.03784711534421136, -0.018407164537473483, -0.03693036700093414, 0.012473882960376787, 0.05878038692687442, 0.029703242982154907, 0.027495176301432504, -0.05128753962855741, 0.04869293786520911, -0.03256685221114067, -0.014899373537237763, -0.040801348106294155, -0.036081335868083, -0.03842151406426087, -0.04999351364972269, 0.0017941419423513534, 0.03997726269419429, -0.025029208797345694, -0.03298634484706034, -0.021039871265725898, -0.009297736201117152, 0.012514887932167481, -0.029149657504691843, 0.018705908170566356, 0.02451218343110597, -0.053651321778544175, -0.019452746812048626, 0.036386827693429734, -0.012566552520259013, -0.03216879854676232, 0.05196870252181058, -0.0017317082568469669, -0.008329210628509855], [-0.00037404347722994443, -0.04476387513111452, 0.047607596495991764, -0.051281156727217836, 0.0395185300459755, 0.05049788127623846, 0.0021553786633874954, -0.028452944852007087, -0.01828231707410779, -0.052814528373825616, 0.0024241893049360714, 0.03453455076270965, 0.03846227225159429, -0.0005615519025869668, 0.009459780717408413, 0.015564975376761556, -0.039410468212555866, 0.03814070927671539, 0.03821743054713208, -0.04985514687347351, -0.04713653155560316, -0.054391146658740626, 0.04742162127506628, 0.04199885599151061, 0.0034979725270227477, -0.028297506769077968, -0.04100573200913436, 0.040207611522239756, -0.038842077867054965, 0.008088915863503106, -0.051874104148958426, 0.009308798507623457, 0.00026975533930574284, 0.033007369715416054, -0.045396912507082235, -0.05001877369707117, -0.019777861661629082, 0.044552303988702274, 0.004656258064911809, -0.044865637806024906, 0.027223514486191265, -0.054859753767583314, 0.026551871407091067, 0.039791608753934955, -0.00496534225452959, -0.03640289945390791, -0.008950101037756862, -0.046687902996580134, 0.011638649807020701, -0.014861460847666097, -0.030194664951724928, -0.03480458641411807, -0.04990312430373719, 0.019412006854697735, -0.030447129491834767, -0.036507522044910534, 0.04414564430046736, -0.019338247866765426, -0.045377253997237445, 0.027570366499591742, 0.049258999326237264, -0.02120968987301378, -0.027684339028917867, -0.02887228655119763, 0.025695185815050137, -0.05807704364159281, 0.01891367000304735, 0.05698647836125536, -0.027764784522964343, 0.048544007339684184, -0.049036845480849564, 0.01728995028767869, 0.0326797622318559, 0.045992545572662254, -0.04678814921325359, -0.05153140165557419, 0.015469748345466428, 0.010456605589398935, -0.037300956734367306, 0.008966610768396908, -0.0368232045304279, -0.009063607582717502, 0.04189878611821241, -0.026150032568475885, 0.020061086332231453, 0.0316642869225402, 0.03894695861938626, -0.0509483694467448, -0.030136145301412627, -0.0029414250626024568, -0.03798097632467277, -0.02901183730211424, -0.03017810865856296, 0.050465709251659795, 0.024018822346489364, 0.030218729390175107, 0.05111782125229303, 0.025049482355419105, -0.04295150207412101, 0.002703587366560041, 0.006009168424012872, 0.06024936635122011, -0.05220387476192102, 0.04525325065002789, -0.035389003151421176, -0.0013589467019042491, -0.020978196720164398, -0.04694655161361772, -0.008657222304718527, -0.01749965394203165, 0.02795239494500534, 0.05599323865083771, 0.044214579039163066, 0.033436261531351714, 0.021389781674264828, -0.015338548004177142, -0.022355555856960932, -0.014432739164780793, 0.06076986550521659, -0.03630475075024917, 0.039087109362220866, 0.02530474906948111, 0.0407129793856321, -0.048507157995710724, -0.01212958392192799, 0.05048454846072891, -0.06381548728749972, -0.011437027973914542, 0.019033077063852197, -0.008809785816551036, 0.054970279422078806, 0.036660186932234315, -0.05524965781315434, 0.04351507598953669, -0.035442138215605226, 0.048178693782603484, -0.029157227064013934, 0.027549695295916714, -0.03279946501056182, -0.030009951378785645, 0.028940191032644447, 0.05036619312328295, -0.009359315108780405, 0.040533190982989444, -0.007925172161928767, 0.018175279288741415, 0.05699387496237302, -0.04691694182763948, -0.05298583053153479, 0.03852732055595753, 0.008757594867865395, 0.021975173392130155, -0.015375431085272215, -0.04172100817448883, -0.046922302469570985, -0.04998168457619477, 0.021191027090264446, -0.0584564335186493, -0.03794608529074715, 0.04467919324038858, -0.061047591761145104, 0.030233119471676975, 0.04430339635590204, 0.044137356924802015, 0.01625627558513797, -0.057316548323737324, -0.042416205989689836, 0.026376941249487407, -0.029868015903304033, 0.047595593326262696, -0.06086080275806329, 0.01956745458415969, -0.05834193204001908, 0.05362331795951245, -0.011909069053057775, 0.007275461556337885, 0.0561112569189347, 0.01711635767048814, 0.048276546292443615, 0.0309985835958413, -0.014550649486664631, -0.0017388322904070216, 0.04182060207710218, -0.05317510393122189, 0.02257109129060237, -0.044360860458283906, -0.053281520544099355, -0.011405175846799292, 0.010061296251164314, 0.04994677342270909, -0.03107620332218739, 0.04636976715819062, 0.016172229018151046, -0.0586262953012205, -0.03784764157369873, 0.0324951156913969, -0.04806712920663656, 0.03813898029584839, -0.004241308988836439, -0.03593234268929291, 0.06164110816741656, 0.04933934702114941, -0.05161713875063513, -0.029564568203935018, 0.02235121226196739, 0.027791387619230706, -0.011254262762438462, -0.051214477634288144, -0.008327057425518938, 0.022570496455564814, 0.022033902591670134, 0.05918351129436072, -0.04140210438034066, -0.03862091769783442, -0.01907426205380349, -0.012434985249091621, -0.02399083308403683, 0.06108373200334634, -0.019713778411689142, 0.0023076322899129296, 0.05444014156273148, -0.039357058485758205, -0.015514758961679073, -0.0140447337482365, 0.030491948494890064, 0.002997770632078872, 0.04241109891499471, 0.021225754647084802, -0.03117626888888559, -0.04953926566496078, 0.01053752038336099, -0.03282809508660783, 0.00991323729591635, -0.019726383431773225, -0.03797609453097127, 0.04259422113447544, 0.015751307035680364, -0.05765182089583304, 0.040273914952910786, -0.04561469937295672, -0.05336341188970421, -0.05544665084324121, 0.011915457712507517, -0.042839407217402946, 0.03878039645710796, 0.04713613021468756, -0.03426941690047562, -0.051947929050138675, 0.020698306191171235, -0.03387203399133956, -0.022038148669706433, -0.03588757833233723, 0.012038506516333423, -0.0012424925411661835, 0.052680711225087634, 0.0038539197482433275], [-0.03986798223208773, -0.012925108052198328, -0.04117577621419604, 0.03722921005352317, 0.03619456642478541, 0.016465499574476194, 0.04429239477526384, 0.006853316815777987, -0.008840727059400198, -0.009940099626640402, -0.026507559616664882, 0.05617230823727268, 0.0076456824121382974, -0.04565904633169768, 0.024084949112581112, 0.05748751086051874, -0.04819918974735363, 0.0034831295860830867, 0.049762545896810395, -0.05346511689027851, -0.045513852048882364, 0.035155597768976074, 0.03829724958801099, 0.05980852892821295, 0.05314860657982689, -0.003469586136634583, -0.01390562055364477, 0.011994883987483237, 0.04165959821421215, -0.004339624226283428, -0.016551226710953895, 0.010332847603221304, -0.018513040910719286, 0.01236685883231742, -0.051033637046720405, -0.012346161559805524, -0.008803260632030678, 0.04910941739355391, 0.003755137380544608, 0.045402747127486355, -0.018687641379828222, 0.05117234180854053, 0.016362512796505295, 0.05737552142454626, 0.04956963915375427, 0.03169657918285903, 0.025842928944351373, 0.0191215779562658, 0.04645507966374888, -0.05256269754567112, 0.04709007580615494, -0.038628322035556266, -0.0053655485655565455, -0.01891648190471803, 0.054928518114377295, -0.016214405705072345, -0.035079556850571444, -0.006023024585356131, -0.0019424664493762672, -0.056540207075360324, 0.06228964167383541, 0.023942539364424968, -0.01745814848668309, -0.05181934651129784, -0.030951701174442868, 0.06179149043751298, -0.058169633175079866, 0.036884050692596385, 0.040356425832958065, -0.05231415635653402, 0.0317129111476693, 0.035904377621555364, -0.006820881059631496, -0.033428028485190574, 0.031673365790721074, -0.05707778978845749, 0.03050920807298792, -0.046159049426376844, -0.03700746390450639, 0.04974905256559725, 0.033369563607809065, -0.04480885576065605, 0.043826524422216774, -0.003933338076082536, 0.004000994440072633, -0.02655607642090399, 0.04245619277218561, 0.06012478652525084, -0.008613608064912317, -0.060243803266711936, -0.010260218405866191, -0.028261728147215382, 0.023671542325158543, 0.03684029126963636, 0.023115303788656002, 0.02283679276430816, -0.003859533073306219, -0.02352552421725522, 0.05679675138993047, -0.01860376376934207, 0.010881240450128848, -0.044118548946404094, 0.008420566309452092, 0.04804388253626018, -0.042222502914284435, -0.009186808337080195, -0.0042763730859111445, -0.040176418645822755, 0.0540176403639329, 0.062261849550401115, -0.04153629535925858, -0.0529157622595562, -0.024960952079762892, 0.0001252770892642841, -0.042173640390485836, -0.009335100355084783, 0.010359850889442149, 0.005545025974259034, -0.04625879052284479, 0.0567023465852323, -0.024698681311674027, -0.04472224912634124, 0.03160785740282079, -0.027682924137567656, 0.026434349544933105, -0.015959774599383064, -0.028025181185374712, -0.034630192208741875, -0.04127370490323583, -0.045068721285831614, -0.021651166316493536, -0.0008983559950177304, -0.02493098864107152, 0.03518963773828476, 0.051492574395494345, 0.01767229230917147, -0.02697684430106011, -0.04482191765765324, 0.0422355850990402, -0.044094015740145334, 0.06203960772756045, 0.009426246767024629, -0.033363693932137846, -0.030984640378356486, -0.05523049207756737, -0.024542439297566016, -0.040800754224992034, -0.04540788199213308, -0.02545002176766181, -0.02414217721266104, 0.039911627195675786, 0.045559217864035474, -0.011209511589497307, 0.05066012675965377, 0.04099550938815801, -0.015824396176917565, -0.05225709854685251, -0.06044811323739511, -0.03552161744889758, 0.02930158318437202, -0.04901813626175299, 0.05467817233153272, -0.04334243495432732, 0.02491087914811272, 0.00027815421412190697, -0.009913084005191326, 0.015907159073867656, -0.0034710644511688777, 0.05430028880222713, 0.01829032362071954, -0.03465790938805566, 0.00445133008880123, -0.03932453293598661, 0.00927171600500135, 0.023053289461703787, -0.041764112275524075, 0.026643422133206238, -0.0539506525770461, -0.028185660368748363, -0.032950504396616315, 0.039367535170577145, -0.06177921245520269, -0.022084740638607825, 0.027320915710802342, -0.04136868763662326, 0.0017020510049387241, 0.032066499838139445, -0.04139033061490107, -0.058440351215925376, -0.023354981034055124, 0.02983153341662836, -0.009782470209753267, 0.015679748411139956, -0.05899749642062686, 0.05723318659786345, 0.000553160198791476, 0.02395183170636755, -0.03273457423146611, -0.006110437849635732, 0.028207093890494073, 0.00838053676244936, 0.04092086888619012, -0.03204891638076826, 0.029582372643585906, -0.005264593452583906, -0.03727859705476962, -0.005913926206757711, -0.0324586861758446, -0.05895311683013752, 0.022386689648948417, 0.04672632492224282, 0.05157554585354443, 0.030620698974574798, -0.02351994567711849, -0.005694255458138036, 0.056863424622556794, 0.04083885802130187, -0.026915700861231254, -0.00967569425300971, 0.011088369026113926, 0.06245732391601909, 0.04224365967782178, -0.034625916852384364, 0.02184205241576167, 0.018666257556942654, 0.013923682420321016, 0.036022072374459924, -0.00021081525674161353, -0.021014631914609384, -0.04324727866926838, -0.059974643861628735, 0.021925903515050724, 0.059423554695539824, -0.03888531672746129, 0.037193120994567834, 0.05565540759608521, -0.0018630174756868853, -0.04301966804002463, -0.047957212261053414, 0.009552202334850246, 0.043016037579743725, -0.014291424414994753, -0.011725058258571997, 0.050362327715096425, -0.04337051025122736, -0.044697832978271256, -0.009647102057728077, -0.008125426554610543, -0.003894262272644271, 0.0196635302481055, -0.0017868696891743395, 0.04415267216295364, 0.016898537400720882, -0.042547821328716845, -0.0373223892717901, -0.05548430580889364], [0.024131404368086126, 0.030192869909272422, -0.0356262456415077, -0.021824205630319775, 0.04292649756833116, 0.04098305936035999, 0.046157683818396994, 0.0034300735901636355, -0.026752974169510703, 0.04423294284845729, -0.05548382322631441, -0.04210739331562544, 0.018574925713727312, 0.016021893658659386, 0.0505535641561207, 0.05708778923478901, -0.05060483658606072, 0.038941133261376375, -0.02137242912798563, 0.0009600385445935172, 0.008311225388250885, 0.019346384550893832, 0.04236035891394782, -0.005601687050060383, -0.060326909643468145, -0.03954350062101701, -0.015247115333682854, -0.000977419512008064, 0.03753118505481789, 0.04239327920643779, -0.018797179337814923, -0.023193025670100773, 0.04450830594330103, -0.018663873313303596, -0.020550778113060802, 0.022880192443486016, 0.01368809190520463, 0.020413528635997477, -0.008554522398818251, -0.010903672744447205, 0.057982536185293476, 0.006402987645141659, -0.004601066169893763, -0.0381915137579761, -0.05783475543621542, -0.02563236098590893, 0.02419869868355698, 0.042419068213045585, 0.03637467073796866, 0.054571087322728064, -0.04686746653894109, 0.00852565651674212, 0.059293508409979157, -0.03261899893039486, 0.026103925671151506, 0.030128655041175127, -0.03397024812580196, 0.004488098271890041, -0.024360555293990793, -0.020598407782068437, 0.008575967734768824, -0.008528107086891794, -0.001126908128606362, -0.01571835003271592, 0.03996634392490163, -0.03475805188217974, 0.032397298683677515, -0.02254764911041559, 0.05927521579997958, 0.03788196789940117, -0.05766566589651089, -0.01234022559357288, 0.03862507499393043, 0.017938025067980815, 0.029617874490351886, 0.01890608296862317, -0.005397434238153157, -0.020461213907501614, -0.06145409495303081, -0.016102359689970397, -0.05721233168541458, -0.04786612268996463, -0.025556170279461433, 0.00012681519558288912, 0.04067569454024138, 0.0057395126777857715, -0.0076293308184469675, -0.007085606072081974, 0.024337235485370097, 0.00045856748534220886, -0.03163710147071601, 0.002980954835294405, -0.03497102531876857, -0.0030534752216679595, 0.012418017967323525, -0.019833934057744487, 0.04450423188498394, -0.05898753797735689, 0.01698511525503261, -0.056450332605825077, -0.03203385695328343, -0.045235218820367566, 0.05262853480086342, -0.002380404016676698, 0.057489360564502795, -0.04999680307780376, 0.04535316147808365, 0.05619874304504373, -0.009964368972581553, -0.010536278865973915, -0.05958313790328037, -0.017410667021811297, -0.05820272269937348, -0.05348330279971891, -0.0160369008320954, -0.030121316044511813, -0.058705186802741116, -0.005579151964583474, 0.0419345721880529, -0.04374051842287281, 0.04322807471654132, 0.06111230469543386, 0.05689791403594259, -0.00015024663530991577, -0.030783157584576636, 0.003015436606137112, 0.03817745902988371, 0.00029058964041460454, 0.04055707497817167, -0.025654058796030936, 0.016277011219421746, 0.028777232494239382, 0.022606145872014687, -0.025635085479007537, -0.03662208572158918, 0.010392041880414347, 0.047609365325875445, 0.0017886847256894562, -0.048752613800147324, -0.024543342225889827, -0.043297467353993875, 0.023941355345085097, 0.007449665920952687, -0.022609271826149743, -0.05722285948723647, 0.048700580371191, 0.050487565982092864, -0.017931969036370832, 0.05766515937138303, -0.050567094950360124, -0.0505160465473067, 0.046455659892793766, 0.056102372180708904, -0.06017136730338832, 0.057444108658859905, -0.061574882802876936, -0.016025005070480658, -0.05195456088954842, -0.01655001489340245, -0.022377586036299545, -0.04196727971576744, -0.010330725061424843, 0.052760085065290736, -0.027446980161732006, 0.0016508648377882291, 0.01837965746441277, 0.05298024114922605, 0.006505522348238991, -0.014223327203885201, -0.05169113934663709, -0.06035705053202321, 0.03042526297670438, 0.0110895782396056, 0.03958004306697735, -0.05152417370869339, -0.010023798732714419, -0.009151146449933579, -0.0594090617135903, -0.004125312448813532, 0.04586943124209831, -0.006262460396879645, 0.040849337229679226, 0.040875748723402786, -0.05595803268191702, -0.05045088340916828, 0.02893021347424739, 0.006241036139175053, -0.049840519609149536, -0.001055242238407155, 0.024826338956966242, 0.027021968620492404, -0.008106615201420671, 0.050916781178688204, 0.020048103719620656, -0.033582547081485954, 0.02177071697784777, 0.054326222230005224, -0.02445439278122089, 0.06210527931791904, -0.040048261544618914, 0.014824716596105252, 0.017794084865256403, -0.013199632476541635, -0.050499570416282204, -0.015465630300596951, 0.05442221962323395, 0.028543735964155898, 0.0034314150685907175, 0.016838396779836593, -0.025346808207860873, 0.019860695905913255, -0.010423522071055328, 0.03571547110641609, -0.029345501080723556, -0.058809210391742785, 0.008492164490244172, -0.033269389449359026, -0.01444159745783919, 0.03895718113923727, -0.045443839333763864, 0.03011234728420304, 0.04596736461255674, -0.010543846610438454, 0.02258408568971135, 0.020647483671770647, -0.043420148891597295, 0.03659045705552546, 0.05394114762181752, -0.05238547154833797, -0.04660950697155293, -0.031031052019357293, -0.040969853508609815, -0.05491991356267866, 0.01590768990957943, -0.02204591496616278, 0.06189654575815641, 0.04667632048272954, 0.02194272298981807, -0.032000680027929565, -0.040665329423736005, -0.037888775502067165, 0.04985158497048002, -0.04946980683626543, -0.04085522303534698, 0.02837185985224597, -0.02966168038645039, -0.051012701063833626, 0.027203963386631853, -0.04606485103556871, -0.01846659774185988, 0.010493257890624837, 0.03449715391031489, -0.0057087451119025, -0.04949637974323243, -0.039444689671639374, -0.056031508853985106], [0.017356113834573837, 0.048623333939235486, -0.01779042583904524, -0.045201841403714305, -0.05368997677451054, 0.026480752557848885, -0.011868406083629652, -0.040603359543308716, 0.002070270673461096, -0.0509424544629797, -0.041539373606567113, 0.0472396006243162, -0.04427707006479783, -0.04120331239983069, -0.05565011276009704, 0.010517749544681352, 0.028839275722217228, -0.015066482727762662, -0.0072088417314053405, 0.04722684001270317, -0.001406228857279259, 0.050873233805483226, 0.04007441140137218, -0.03312082067258967, -0.012955101345183932, -0.04671627548890909, -0.002343640716452874, 0.0600036128232526, -0.03940176500602879, 0.050593337135573506, 0.04764368306873608, 0.029859941759336855, 0.014332458319993815, 0.029987109384095968, -0.035606819928564785, -0.008738330439509747, 0.05941404025694106, -0.012808223522810948, -0.05188108996386882, 0.03276001666794304, -0.04350712667745621, 0.027042969681320108, 0.006821412712712695, 0.061217298641230364, 0.05964779395093411, -0.05738297075834222, -0.0345691802344767, 0.019256073367147693, 0.05551399914794492, 0.021301693543798742, -0.019390170760482522, 0.0397811884770277, 0.030740995547142904, 0.005629982517698984, -0.011539807880500517, -0.027206446777191425, -0.003348790473568174, -0.023014023815137664, 0.0510538777586194, -0.05898127550244311, 0.02373539472261566, 0.03275500139154231, 0.0033920037748114986, -0.049721754318172426, 0.05815672235030491, -0.008507795674194707, -0.04146464351136078, 0.062096252540410395, 0.0403601177706238, -0.029028586151522887, 0.038294291831252145, -0.00843070651060955, -0.0067461877401388355, 0.036722443236642865, -0.01374856665677043, -0.015035564356798255, 0.04422935437661193, -0.012988591340451511, -0.004896590441030583, 0.05771876037589073, 0.015751475893860722, -0.05519727741693873, 0.0012075592261737548, 0.041887664147727814, 0.016880177529022294, 0.03095117878834449, -0.006663863644840851, -0.0062583749395466685, 0.017960429070331276, 0.018288380354474245, -0.05904888762313161, -0.0018578511075874383, 0.05545759264997226, -0.042924531800894325, -0.027693157722657326, 0.023023994007731426, 0.018745955240720247, 0.00838863633673142, 0.005430510062007577, -0.05199103931074444, 0.01324097075880371, -0.044024143117746675, 0.06076435489707501, 0.015016542752885172, -0.03414842532654301, -0.03391460484542011, 0.04422492883636237, 0.04954472348441579, 0.05998758297080411, 0.04261340620080144, -0.045754043720859464, 0.03320759675493634, 0.01881077397221369, -0.037555028448395714, 0.017698732217655676, -0.02126035292442927, 0.031865077943373725, -0.020216021781436805, 0.05384748265366581, 0.032654880979320206, -0.05976363189620164, 0.05774536489184628, 0.03455000174779119, -0.03252063295349815, -0.047062769378075575, 0.008042251500882754, -0.006261344945315171, -0.0364374342909653, -0.03614929518287722, 0.014287719918724778, -0.03763604884373702, 0.06083102729562915, -0.027495464985173752, 0.012944960906973656, 0.05573369102680182, 0.022820121588906644, 0.018445890076531378, 0.006695471243911947, -0.012912594532445408, -0.037731061023527704, -0.029046461648097797, -0.003947252459368696, -0.03183719439167339, -0.062486593728303015, 0.06018856379321088, -0.047267587278911165, -0.001603997664046508, -0.0312619478613449, -0.041956091944467026, -0.01540170702814539, -0.03209393955622548, 0.02077001042001399, 0.00825048556346605, -0.034722191474377606, 0.04635416105968363, -0.0035540881625172084, 0.015583038662448829, -0.005943658565757871, -0.0006424002702240869, 0.009607557695877964, 0.03498647797648752, 0.05000604082495028, 0.00045352923446751977, -0.0543105910686835, 0.03224386215870868, 0.055300488263307, 0.04926323189251587, 0.05202683785362563, -0.036461550983370256, 0.05117015787907427, 0.030594580191563792, 0.030934221864519863, -0.02042411405673516, 0.04669298442782395, -0.005427115197068939, -0.026814266354285285, 0.020950322143884207, -0.035600634216414, 0.038076905995307525, -0.049464468248236595, -0.014814501984952927, -0.040873251891567534, -0.039781657077999216, -0.056692369478982076, -0.05529954855624371, 0.0005339202449256932, 0.03728636371256949, 0.02140060666288649, -0.056031949704779795, -0.02724793266337197, -0.05952718244798738, 0.04652771686663398, -0.0538431307767767, 0.01660035085106085, -0.017386622930706547, 0.02828573236176824, 0.05153129425474377, -0.03485701159844662, 0.055885665687299774, 0.004634462417074699, 0.030011295820961147, -0.055274718690801444, 0.04928892082862907, 0.038877372620862966, 0.0032941780730948744, -0.04616124750034115, -0.05342533762488354, 0.05243149753013689, 0.04265457403121943, -0.032509740969492044, -0.014258390375260747, 0.056777436270430144, -0.014011193971523036, -0.02876189552174697, 0.05384093719432078, -0.03624060735686474, -0.04707026851577379, -0.062030649211507576, 0.039767405414407604, 0.016246651204904178, -0.035824488107533164, -0.00021571900124493345, 0.03668163372683319, -0.018419314998302183, -0.014375903540923675, 0.04647706671533018, -0.03867054118940263, -0.008153633862139452, 0.010808472136982725, -0.03411940970781727, -0.04802145304395615, 0.0246241688111584, -0.011817746463535454, -0.015595600119133914, -0.04767536823878071, -0.00509056456558187, 0.04746349393482166, 0.039127757158990896, -0.056442212912210285, 0.04690545150394284, 0.027845227771842566, -0.022173199513914894, -0.05866550090504787, -0.010496403420020997, 0.015713591493185037, -0.005034293862684914, -0.05337782849652232, 0.05012543025267553, -0.03442547442363009, -0.0582768060581571, 0.05792174082878784, -0.006006929120660366, -0.044109173878009895, 0.006938352729563335, 0.025632700795509417, -0.00453047197212249], [0.01364861211267446, 0.008242924792667545, 0.05596132026199706, 0.024162095513853975, 0.00810067991303446, -0.000501641841785496, -0.023909255154997144, -0.003995501545989396, 0.027230293482626858, 0.04523257824942581, 0.05808869198329848, 0.008333238834249686, -0.04408428656421509, 0.06001864658502489, 0.0609406059617378, 0.039398480037512174, 0.01574968551248491, 0.05559789370014939, 0.010141368221893512, 0.02030729015003702, 0.06222646050892085, 0.03226968223022804, 0.011816532823225208, -0.02712034985171402, 0.018919875387857325, -0.06031443925799186, -0.058760626812879205, 0.003367249414841791, -0.052433156045070366, 0.047632076908882305, 0.03859835671809141, 0.039684900585492205, -0.03430240674028146, -0.0007554347058201455, -0.05228404273970851, -0.04796890621887261, 0.015098814441178205, -0.023058175917387975, -0.020993479101390558, 0.04769764651010058, 0.0005529283800325669, -0.047005161968464756, -0.030771124395046187, 0.04108270509494841, 0.038309016319633474, -0.03602509935774187, -0.04470670042064464, -0.05647193882349796, 0.053615134463880165, 0.06249432756504179, 0.04931079845707935, -0.011392170962160728, 0.04512386153724364, -0.0012512326139211603, 0.0468105326508395, 0.05719297885037434, 0.005895408238599867, 0.0008126755359501976, 0.018562595606536853, 0.011674195157253799, -0.0032552832825825527, 0.051744078834618124, -0.023179411350783313, -0.032858553973878095, -0.02618367859581267, -0.0203458566310974, 0.01331937804327563, -0.026978413602318913, -0.004973168379464723, 0.0235328189378638, 0.049341567590941195, 0.04518805928663967, 0.05603139475065074, -0.01074515837373358, -0.05285423674288968, 0.02519103961731372, -0.05865757058174401, 0.004161282661455238, -0.013251528723939717, 0.01803375714419026, -0.04927140414049332, 0.022485507032745634, 0.04254569434889032, 0.05641209395380707, -0.05635916742492998, -0.04874630461296408, 0.026481282826594208, 0.05799796154905491, 0.046594508139143384, -0.040662173720642396, -0.05037964853016986, 0.016166613911736953, 0.05671779030266354, -0.05674008176759302, 0.008297832662707956, 0.022398723808581215, -0.006091198666037362, 0.019648160659788624, -0.058683466968267095, 0.05273769696097244, 0.03448759444264744, -0.012646796682035824, 0.013688601832170183, -0.028479639687339315, 0.007707001431668329, 0.0039651269691507686, 0.035838690955207975, -0.0009825496759716236, 0.024747203296398426, -0.00022423164397785417, -0.01847135513780166, -0.030026544885203576, 0.029381972532587647, 0.013265676699946997, -0.02285630119816518, -0.04870545545351854, 0.04375390906225476, -0.011931086679530136, -0.029913961710141195, 0.032641176248658935, -0.009591165638271401, 0.034144361702727596, 0.007871699435732743, 0.0590062896019243, -0.010652979568123541, 0.028770003715044783, -0.054694373558411384, -0.02203712327688877, 0.051875701443667654, 0.039643397507363794, -0.014179233423743404, 0.028405946266860067, -0.036997968036120266, 0.05290068278456534, 0.05883943633195973, 0.05212399070333904, -0.03986214269881219, 0.06075999410700646, -0.056573666035560084, -0.02507713920947697, -0.007472575755441642, -0.046564786742955534, -0.04444500997978371, -0.029344206091411612, -0.004548633131837695, 0.027411476832685158, -0.02750209553816381, -0.02660632216641715, 0.06287372125735315, -0.016222959818597595, -0.04991192238306783, -0.035406792872005044, 0.04652576550162706, -0.03323090350820618, 0.0522621473057627, -0.033047376429336, 0.054294091420013964, -0.0178560861713866, -0.007249818822098203, -0.0010464514698699274, 0.003628453533354362, -0.04878727898471472, -0.03226744844772441, 0.0029006318972433706, -0.020624777804121426, 0.0033755824261229093, -0.01466676988685085, 0.00424661041667096, 0.06211967726578252, 0.04191410397656816, 0.032216298396548805, -0.060316152302642465, 0.0022352305288313333, 0.05845776264113636, 0.016915031857505036, 0.02888180618150006, -0.05912755441389606, -0.017911180610137536, 