a = [[0.07320710683895136, 0.023745649950565988, -0.00623448505623722, 0.03282657446116768, 0.04630913406541354, 0.03806064695891133, -0.11128069771976169, -0.009857263717834006, -0.017266874057623168, -0.04257328036607548, -0.013080500666761294, 0.08894775577711103, -0.08612746094923096, -0.11997314504455206, 0.11045900846163458, -0.04499356955736477, -0.12246021606057624, -0.01928986405573319, 0.018556400119271996, 0.06723037904078827, -0.12232985395236484, -0.07525569445352676, 0.001771624344910724, 0.07658643422170144, -0.07076018810326762, 0.09158394696547997, 0.06386171418107447, 0.022146346766784432, -0.0037159298632874365, -0.10560931218864145, -0.004696865267511553, 0.0412718896283548, -0.04057773622638659, 0.11632385037712828, -0.03511355363415987, 0.034661786310151696, 0.11638089398654518, -0.007045353304832892, 0.11068924792955058, 0.07061936654211119, 0.04252082326087142, -0.08952485866850485, -0.05790373033382524, -0.06887180035453704, -0.012399223704238824, 0.121778947600597, -0.03921578972626717, 0.014425930169140216, 0.08341297305390338, 0.04913538932871912, 0.025090302383458985, -0.06056134020339507, -0.02783736873672151, -0.011864516623103932, 0.03234230422456706, 0.0023162627692474725, 0.08273468749752814, 0.01662087820922354, -0.11916522106434828, 0.018854109849297033, 0.07683108721622639, 0.058248422151501576, -0.008615368424281794, -0.1101981623472599], [-0.11388237899128065, -0.11988845241153863, 0.02517380554309798, 0.11716836966169075, 0.08260331968451883, -0.10857035412758219, 0.0062272462068049894, 0.025188239756548565, -0.11896390980916773, -0.03989230936255081, -0.05359018289244535, 0.12258794880802368, 0.007349272446589666, 0.08212595695164894, 0.09845628911735417, 0.05101371736097268, -0.09989615069872138, -0.005046325698214299, -0.12333237308289323, -0.026939368462996646, -0.10166660623694367, 0.08305112683511884, 0.02279500963151059, 0.034244990137723946, 0.10462715379113177, 0.04492657110078069, -0.038143612790044565, -0.03589171777368458, -0.022288543089956335, -0.11833841233677803, -0.09273192986785676, 0.12306521092014294, 0.06405866633543142, -0.1212235844240395, 0.060613804721289015, -0.02159696560675415, 0.09547457316979106, 0.0442657373806731, -0.07672027521908037, 0.0335375006874099, 0.04212175419764529, -0.12201353618242518, -0.020804058441793, -0.11315982954720366, 0.04795658605481899, -0.11197621341966676, -0.013963715060962863, 0.07955131247662138, 0.011261970072669648, -0.0962268114617823, 0.06265176966665409, -0.0951454441217466, -0.03959256459598784, 0.01827157660978835, -0.03260862156096547, 0.00316828101615828, 0.11518184856500382, -0.07001261702472893, -0.022472364781308957, 0.09432171599259595, 0.02310170385894043, -0.039765101696290044, -0.059883943957751005, 0.12052918131800947], [0.08705367915698632, -0.09715350859515605, 0.10242727457299876, 0.07607468109678064, 0.047938279996299106, -0.048037509526286645, -0.06068408117500485, 0.01702382812828747, -0.08999979895887743, 0.08768702868107887, 0.08902005622611409, -0.10041601043496264, 0.11747383356193641, 0.05274615010711955, -0.004828564530507546, 0.031042520859469777, -0.12193747705394833, -0.05342961690678446, 0.07218601734467375, 0.10623188922997255, 0.07069916556771777, -0.08561785273185427, -0.042674095543841065, 0.09644159646439228, -0.05991131437367244, -0.04018242776512346, 0.03859661611562554, -0.03634270226995566, 0.08628074932267847, -0.10284696703939625, 0.08056766003840307, 0.05952296721689861, -0.0359394441453216, -0.05493264883854392, 0.0390157865441786, -0.10685649476602152, 0.06712642498722673, 0.04287426110867395, 0.10083313186082554, 0.10869328355173351, -0.05826167505878968, -0.07861012741285672, -0.11327023640847317, 0.03964303595816273, -0.1015541389947637, -0.061505952139813864, -0.08857265309713672, 0.012465411139670236, -0.03480504717483633, -0.10532889859848296, -0.09149727226701165, 0.09621097997527388, 0.01973707742253348, -0.045665671889923876, -0.058260146206538285, 0.10776644121573475, 0.12025677496957299, -0.06225494740787633, -0.049259737459667836, -0.03982368149514891, 0.09915158252000565, 0.027004772702501414, 0.0926846730412783, -0.09561563054759988], [0.07462958458132689, -0.019096904223015253, -0.08089607690253431, -0.09109513110148797, 0.025506406659116545, -0.0654660745214288, -0.06663473450376294, -0.04572187574784739, -0.05963874077285399, 0.10851068379482189, 0.05668288983764445, -0.11290300303254651, -0.002685819627211007, 0.06368267350698822, -0.06617483841877138, 0.04533009673141833, 0.03762955172693164, 0.10245636815932052, 0.07879851198407944, 0.02295898769086038, -0.055303581780185095, -0.12454325078129978, -0.040884472695910404, -0.05964417294677886, -0.10292534152840811, -0.0348444315118617, -0.0351727071674411, 0.043596980516898066, 0.038472992971999714, -0.04470239430511975, 0.044670290256881934, -0.07534344553374253, -0.03200890883837321, -0.05703982450273903, -0.10235545539257863, -0.11687081747935282, 0.03614563870258536, -0.06362040064540739, -0.06216945559955795, -0.09434537905415301, 0.03581695478790263, 0.03857589953629689, 0.10301549236207086, -0.032815022621694986, -0.040000064523521624, 0.040837094041770335, -0.07905139162796146, 0.07226063246254923, 0.1024421175165715, 0.01819442792243368, 0.08674006548899757, -0.07242001208683889, 0.11525920738279136, -0.012530744634262798, -0.09789109802170042, 0.10170552849891137, -0.0221382068556539, -0.09272881581212282, 0.019444012691012296, -0.003655698883932283, -0.05929713735616712, 0.01685974219601202, 0.030204438601256916, -0.07201471930212547], [0.07811731822122682, -0.01726055074712441, 0.021196257589060453, 0.07923565322427506, -0.05086930860525794, 0.03446306444277943, 0.086785054236713, 0.05944730239882928, -0.05641007205162493, 0.0032238303853459114, 0.09519132314836956, 0.012667921700727674, -0.0010880072655094133, 0.1201122798319849, -0.10409859854520773, -0.042381885978923665, -0.04421624526794113, -0.06573663327590401, -0.046758152931876094, -0.009298900775635067, -0.0931356251174284, -0.09926283493236421, 0.012417805525758635, -0.041239439207550396, 0.02557573198014555, -0.08466329177119386, 0.0016674381857861944, -0.06692411692691072, -0.1080337022873315, 0.05283172391526743, -0.06560561113173136, 0.01963645963863922, -0.010154654357703127, -0.031412038797576924, -0.032295377644306296, 0.029231113882183628, 0.10691289584179546, -0.09502251588810594, 0.0777958470760931, -0.00751374796705675, -0.0369315538515787, -0.05220203794079025, -0.08088125716291607, -0.044922100435666586, 0.009538262766303231, -0.0800360974689948, 0.041068811722522844, -0.016899521631789375, -0.09185968897297792, -0.015706167220036316, -0.050988129672212036, 0.02887099548876214, 0.06498316677743608, 0.03979658181894765, -0.11548125505424492, -0.01335151392344211, -0.08544677802439862, -0.08055832733094205, -0.009621932159906676, 0.04315265436176406, 0.029913262546386526, -0.10002715229002905, -0.07296883841011122, 0.09710416029983215], [-0.06698783845676154, -0.013843597296665107, 0.04183973019012438, 0.02424244712932145, 0.09057294832466722, -0.09325258361928371, 0.08217395803712664, 0.01376911821303864, -0.020694626150123505, -0.025275335543800855, 0.035397476715933025, -0.07236192677727764, 0.0645718931907609, -0.06605039897489033, -0.04669141882017572, 0.10282129065733772, 0.04760456205877611, -0.1064183499912513, 0.10367568668790472, 0.0006722974887565958, -0.05468556249160573, -0.11168590441642239, -0.04337906218093721, 0.015995967482581745, -0.024894249819476192, -0.12044277420536674, 0.008826098496272139, 0.0920682161614576, 0.04874100613827775, -0.10450784500349929, -0.03062864510399023, 0.10697675152672936, 0.029460408063641037, 0.0885601444489006, -0.06857894000984036, 0.12520304234079632, -0.0264271855147456, 0.08564279949779571, 0.001993907441292406, -0.085028030906256, -0.042497592869198735, 0.08515343494232655, -0.03636085594371906, 0.014793269201010805, -0.0900577113753494, 0.028137968130961172, -0.10760318327984757, -0.05805414607737028, -0.025881179492458616, -0.023240665426129577, -0.0452899405508222, 0.00028195093189001675, 0.022360689000198435, -0.005436939845000748, 0.021572784527538594, -0.014952215211009683, -0.002289594091824505, 0.030006974646579684, 0.018235555685753132, -0.08396846209855016, -0.05797851505901844, 0.12138350903678376, 0.05387500718998409, 0.03779651924669073], [0.06327252447222771, 0.03990557276884784, -0.04107946608545867, -0.09544328490029265, 0.06972222776984727, -0.07306507930728924, -0.048480353464952476, -0.02888145060956061, -0.0507577940909617, -0.05856404974400626, 0.04736586160448085, 0.001207946439327389, -0.022204184558813865, -0.06615369610090555, 0.02336495687148191, 0.037987228005044324, 0.06768424779741507, -0.10314997389775465, 0.03475534393967933, 0.00902053491663313, -0.11107270431494763, -0.041861671035007965, -0.024658523946209487, -0.05270543007992821, -0.014546976092321152, -0.1059776170226334, -0.06568683405570261, -0.057116912260346354, 0.0065275286782730405, -0.09324540013832057, -0.03945656916082625, -0.08165974332423345, -0.06474389103111913, 0.08511597728940191, 0.06399384462421277, -0.06829914450179796, -0.07194468994612233, 0.08903112210007608, 0.03535847725830054, -0.0592556641693274, 0.09604896440917376, 0.10791548577793372, -0.03555105128316065, 0.12388404467209418, 0.11591165010176094, 0.032130700378549135, -0.059293402975023855, 0.11368552935232433, -0.0091602083680391, -0.10193675685959894, -0.09636705816359166, -0.0917187816938411, -0.017085520617769363, -0.05105564783902909, 0.03671893470726951, 0.04325585409191352, -0.11335545118646241, 0.016505934257591708, 0.1039822247173282, -0.0968983054957783, 0.09915210426777869, 0.09307890813089859, 0.025148540776774635, 0.09522480240684042], [-0.02243337310944644, -0.08171802815326114, 0.08874643991052425, 0.07431635679051182, 0.09451153680004613, -0.06188756380324498, 0.07560160775464585, 0.04740985049433378, 0.10808426528531391, 0.04748530551541149, -0.0786107473983353, 0.07045417659272643, 0.11287366104638885, 0.042244823593924986, 0.12388819106242316, 0.03881028008567102, -0.11698926032723392, 0.07763150349140432, 0.0928170217793425, -0.048712962350548894, -0.09740579947319628, -0.05622190200990043, 0.07299680619460978, 0.04177774725169176, -0.1129735021844373, -0.03588614155306006, 0.07056321385101329, 0.12178321538646157, 0.10658445884128731, -0.011561671690982716, 0.08101497420234416, -0.07991853921076121, -0.10437614233831764, -0.03804533676036525, -0.012743989875959713, -0.06475460517061836, 0.10152977342165857, 0.0013352617077402814, 0.11024256457018623, 0.0309150238753316, 0.044912559765526064, -0.11463419902994132, -0.020086230282585993, -0.0199584722859135, -0.07147689471738303, 0.07517683685750694, -0.011113950526125028, 0.12509950911341608, -0.03895547048126514, 0.11723125951138615, -0.07355563187023788, 0.040908041428848574, 0.059553671110917465, -0.021244205103595183, 0.008017455309024726, 0.062375554567701316, 0.09922082455472038, 0.10526038169432711, 0.07938376091838352, -0.002874719115826174, -0.0009580478776355082, -0.06542106933505026, 0.03765039491208074, 0.07454619502588772], [0.04942124020990326, 0.10176956244319026, 0.10333016150855222, -0.10749621943601752, -0.02762648294733775, 0.005964182204241668, -0.08689527139038226, 0.08741387795738602, 0.042655287952048676, -0.10276758090903389, 0.004309766238236662, -0.05742231106178236, -0.04909044660513066, 0.11234776092720146, 0.1013696340073522, 0.09240442867244021, -0.07005370625242087, 0.04307368831875372, -0.03754905966650392, -0.03377046616093222, 0.010976633214381972, -0.0972360080046247, -0.11520833806184282, 0.07988946139009238, 0.11375323402954168, 0.06883853122060263, 0.06006097940568235, -0.0012105787395891787, 0.0303508265920096, -0.000503370477384707, 0.07154941626012203, 0.01976979790202212, -0.056473475633456886, -0.059062852915662774, -0.09069529777241278, 0.08432100971059399, -0.02905425843583109, 0.1108417439876668, -0.02016941647525902, -0.09664541644124242, 0.07279445377824317, 0.013859861590500334, -0.07006796352248137, -0.0005220280149412712, -0.004764682662406131, 0.008510206905632443, -0.0566832715917815, 0.08399246601056048, 0.02548419212285983, -0.027153232104223594, 0.021479408017439524, -0.09547050195853089, -0.07905937532286736, 0.1230130949277387, 0.09091714658019924, -0.07233548760904564, -0.025853714075751925, 0.01955547599081648, -0.11189609495454862, -0.07482299449103151, 0.011956842835622431, 0.006096412062985807, -0.09825246133444236, 0.014696423647029479], [-0.02032558735601151, 0.048854796333353115, 0.009344783689923152, -0.08585473244077127, 0.10120747216299661, -0.0886847073261733, 0.030117722322739224, -0.10308420400665477, -0.05949579581146002, 0.06971793648891281, 0.00997900484825534, -0.10678225225541184, 0.05531703532987937, -0.009287750933224426, -0.09274844163577084, -0.08808740957037867, 0.00308368475135349, 0.11566296443649944, -0.07179524895148967, -0.0780945153453562, 0.07044782592915763, 0.1084574894088451, 0.1151540031704147, 0.04657964963437864, -0.06517654757955597, -0.09983165147877661, -0.11753828808969266, -0.09966512454884448, 0.057110832767697794, 0.023784322569685143, 0.03283035256211258, 0.1126059889263591, -0.04356522404559795, -0.03810846861536388, -0.11221543826456593, 0.04899285389650111, 0.10715759113705794, -0.06247396825868762, 0.0076004067723638566, -0.03036830201770665, 0.035362583899553046, 0.05372765327577422, 0.06655210167116557, 0.06698740779806442, 0.052716270924456896, -0.09100162081615891, 0.048504418767334044, 0.058285265562520505, -0.10924287532746384, 0.02265169539295815, 0.013905901152162852, -0.02684381942673106, 0.10522568252145541, -0.11079275580337201, 0.04529595953880192, -0.014919027522527491, -0.04146470101997927, -0.0664300178662153, 0.05616514526013486, -0.12471559247875277, 0.08235685743323896, 0.12097959792769113, 0.007589505845754509, -0.0877773464184935], [0.06809110246396016, -0.06590220425228784, -0.0899123004344265, -0.08116382030758255, -0.02624449551768537, -0.09446204422257409, 0.08150202062321, 0.004607763928206137, 0.0814014177770038, 0.10968482695609884, -0.009530276749955161, -0.08454940660640088, 0.08709731394621938, -0.013053566256192035, 0.08409515295494156, -0.07394565953151411, -0.012259776913119743, 0.08680018752564472, 0.11580015077348725, -0.0985454203644776, 0.035237463165139676, 0.05503564913360601, 0.06819474281487839, -0.10127234743169816, -0.03361447146549537, 0.12198268974295137, 0.11409466990546298, -0.12426566311197607, 0.057537684523022686, 0.11381363518306109, -0.09388816489909689, 0.05771642914764565, -0.0936737697613148, -0.06557096493113936, 0.07188201021714148, -0.03174972374218945, -0.07496261421495257, -0.03346125833713312, -0.10480910863224162, 0.11655726604215583, -0.11494491349165373, 0.03533934185362348, -0.010336255387354406, 0.03507881046251281, -0.06534686564598033, 0.06990553241867492, -0.10665178637822945, 0.08731101595016152, 0.11379674293450061, 0.04310996331910818, 0.07698472739961412, -0.06033215655827628, -0.012539188502004518, 0.00605551068200016, -0.028297622544476434, 0.0507767427828952, 0.08971413738739702, -0.00460171147939072, -0.044252389981200256, 0.005128474042620166, 0.004406289380080758, 0.06535123141034938, 0.09376716615224798, -0.013312001344789074], [-0.041592773907341, -0.09974447096323481, 0.0012260329054993712, -0.09485829135186477, -0.07457087638071229, -0.043315335430764684, 0.06656027813072335, -0.09600455414887696, 0.08811571082458823, 0.03309697123080571, 0.09051084746333475, -0.026620297750213743, 0.04968760352348608, -0.1223418059653929, 0.017557382577329264, 0.03403861250609947, 0.11180477743040056, -0.031222653267695404, -0.0034864656762830623, -0.041331088835078626, -0.047134203852776405, -0.04686079811017593, -0.10676523254124548, 0.06273283901825506, -0.08225388616215312, 0.11448799239813386, -0.07578820579368599, -0.05674922736911462, -0.0023308952414168157, 0.038123400731834234, -0.025497489027780214, -0.06766895222705743, 0.10672386733095206, -0.013875285459227291, -0.04379476585959137, -0.05171919325542272, -0.06780648806849532, -0.09925450519661543, -0.06077787332120314, -0.04976069437256713, -0.08345587082371729, -0.042519565348016, -0.10939537722507632, -0.022852673919889384, 0.06519064061828468, 0.005057959984412281, -0.08853292783690504, -0.07101894039067265, 0.09687157194383528, 0.02975979059410896, -0.02082791615524838, -0.03380678566161887, 0.036071791634264536, -0.08247201452878322, 0.06525508152071559, -0.08963950237292237, -0.001691169916036631, 0.07149382320084517, 0.05362674946261279, -0.057123893270906625, -0.08548769231787294, 0.09471620769081221, -0.008502817317925302, -0.07536653455921855], [-0.11501822594730748, 0.06049582363878019, 0.07368330289917314, 0.08623570356704356, -0.11173241369402627, 0.005819135078336553, 0.07870304703796334, 0.06454467283160391, -0.07109335424561147, 0.06985567883703818, 0.053514558681595374, -0.004234370961635185, 0.04132667056097225, -0.08544201399337864, -0.06064006974514205, 0.10256523531581795, -0.04915119285831403, -0.012631876235839404, -0.1161847190886404, 0.11309208673208146, -0.03706267759131568, -0.01528966042717282, 0.07673689907369428, -0.0704419489269694, 0.0922146979410183, -0.01880622486470487, 0.07511559004137427, 0.086595366938679, -0.06502401820679964, 0.0395528065178079, 0.11997332863437239, 0.03627415864582043, -0.031788595878685724, -0.03641061748003071, -0.1225016074920889, 0.06733359180907712, -0.018663270147571916, -0.08439433770167429, 0.029035866375268626, 0.042275934245948846, 0.019765619779301125, 0.03740743956068085, 0.058034454756951064, -0.06778572775017931, -0.03254589402624581, -0.05562089043088931, -0.12310262092569894, 0.05844593625690383, 0.08038014380587384, -0.0547203399003563, 0.07735494894697978, -0.06632980356039549, 0.06682765648475181, 0.04283181691703773, 0.11494148785535849, 0.06592474159261486, -0.08748311823760407, -0.005529461066051509, -0.09177843449922156, 0.030746310700913937, 0.043244866585555645, -0.07065089397903249, 0.12486456721397204, -0.11616153840752504], [-0.07062944566067833, -0.004135807761096242, 0.013520281098038503, -0.09775273814723147, -0.11495662285018504, -0.04120745060285325, 0.05610975854744004, -0.08542858845886987, -0.08614421234323005, -0.07329005796460826, -0.04210630943696136, -0.11295267589567633, 0.005717075914362011, 0.057072314096855155, -0.08065852476516452, -0.032486085133925126, -0.08279670856584587, 0.09374636163927177, -0.06642868156778016, 0.10593101971136691, 0.05009927052853313, 0.04631151437507066, -0.03948998742244437, 0.11759580309077579, -0.1148142237898239, 0.038073162942414716, -0.07696074236796399, 0.011465091378457916, 0.02456497294455037, 0.07167012571505725, 0.05950276297669624, -0.11923225200705861, -0.009852155765029643, -0.0692320489497684, 0.015778855050361727, 0.11817399725582677, 0.016796212301336124, -0.09964761699774678, -0.0998310075578708, -0.06097995539198547, -0.07489038106688006, -0.037904505294627584, 0.12076799317700844, -0.08754237895877942, 0.0016433160416294008, 0.08780049555207295, -0.0852945152822385, -0.0781285340343609, -0.09224661057182656, -0.028832459562770734, 0.07945389100549598, -0.057607250569733565, -0.01798156878400669, 0.010517458711281454, 0.0009705909364725492, -0.007735218344921243, -0.1035894449951141, 0.06940276243772187, -0.07397747202087009, 0.086783015062703, -0.03338144429779884, 0.016059859834614033, 0.013313116593704913, -0.01361851278526383], [0.0166268408433744, 0.00521407704565263, 0.04598717421282862, 0.004421907926834945, 0.03259239475340841, -0.05926187257325112, 0.027365930533475365, 0.10876768267825596, -0.051958515194025855, 0.02152704417229094, -0.015908577566006173, 0.01313726381035204, -0.023901843344782597, -0.006252918571080325, -0.12198674029556592, -0.0669135942502957, 0.023918001236597874, -0.04591232605577888, -0.10105481165111531, -0.10367686094596627, 0.04448274291438015, 0.008590039927256663, -0.030138921646366154, -0.04477641325799639, 0.039008689200587345, 0.07470788326379553, -0.07951299365683309, -0.10676774748918744, 0.010915909922896061, 0.0637821290828177, 0.11252204927569769, -0.04720257585531766, 0.020834821366213837, -0.07619458080370736, -0.10283124261295266, 0.11527990346630539, 0.07908025386913102, -0.03440314128728173, -0.12137791420884077, -0.10060336651479916, -0.03840050884957594, -0.11364897768277246, 0.05262816451357173, -0.10559428344898819, -0.12273040374862254, 0.10545041742259972, -0.01424356766482236, -0.06675152860861902, 0.007418171706172348, 0.010984194909893212, 0.032648350338859, 0.059224058038941374, 0.03515762173470349, -0.07365101738152811, -0.0487015269263893, -0.1210327898022131, 0.11538298281787156, 0.06878014823813637, 0.10184607301226917, -0.10799184769174533, 0.10145033520848896, 0.013131386346373076, 0.020155767213601235, 0.07800676249580603], [-0.08631137197396717, 0.10776643821127373, -0.006467886207328825, 0.01731879696997579, 0.042689562292338876, 0.04648727093648731, 0.11845913837466047, 0.01772611538808787, 0.029745843612566582, -0.0055357744846772925, -0.09843995469391051, -0.037543901484084846, 0.08189541846351811, -0.12347354663332567, 0.07601798801447306, 0.022940369291806924, 0.12358199397245792, -0.04619809793296305, -0.1253172494727367, -0.0884424996648154, 0.11760483180812215, -0.041571305852671596, -0.12118130358057204, -0.0053814817294544955, -0.11311554258442547, 0.09682549648614094, 0.11080537419908355, 0.12327879092937391, -0.014938156431478954, -0.08946110969313642, -0.06255813521304499, -0.04532069046865097, 0.0004443590663087639, -0.0552066633162157, -0.11054024850197214, 0.0404218926654279, 0.05187114248334501, -0.05904779755833593, -0.11356893607168476, -0.09550526165664629, 0.048845387286263586, -0.06539231308123679, -0.07808012336516311, 0.07505862388800334, -0.10537303496746009, -0.11602693218609882, -0.10060953745587933, -0.02468455085250669, -0.09355727408565279, -0.06561082639895384, 0.0787271901667476, 0.07079554411971145, 0.0695814614376621, 0.10982171610399186, 0.034594667397294464, -0.11274832006794643, 0.0743312325920277, -0.015702506262286444, 0.02765966987703459, -0.05045072845950556, -0.03942380513174829, 0.05093499911776635, 0.10187147297763953, -0.02965807309463229], [-0.017356879935250008, 0.03946898595801756, 0.02193211102062798, 0.030675942474865027, -0.028477403080071274, 0.09057044493160808, 0.04592377715022871, -0.017888617019833564, 0.0006251445751573395, -0.047163754787356654, 0.0755170400656754, 0.0419076867920481, 0.0471356320076581, 0.0774629316164159, 0.11726194880767557, -0.02030023648269305, -0.08571901327884177, -0.053242352276115984, 0.050217872931174516, 0.047230289200640825, 0.03477649126509107, -0.050925677785091036, 0.052906921820199244, 0.003469439835210395, 0.10810267855252037, 0.08175286950199366, -0.11879341706650268, 0.06207187341586767, -0.11943521696289613, -0.024052347646255696, 0.037282301301892466, 0.05831929016071284, -0.039570838452198394, -0.03568750469565553, -0.044013456125753914, 0.09525932982877267, -0.08954884586529906, 0.1235437236049542, -0.06289377233012615, -0.09553076005472949, -0.0495685755385746, -0.05145167134293118, -0.1094113522992843, 0.12185284036710763, -0.051019436606500865, 0.030062372461091006, 0.055929360447986146, -0.10128318824194293, -0.02527242647697284, 0.0783458438884052, -0.04655555680751752, -0.014870099492578526, 0.022426506594176058, 0.10219185651127458, -0.0850436148939495, -0.1050352755316511, -0.12491144702975869, 0.02378480116954885, -0.11066656929485826, -0.02166670486823988, -0.1002862862290506, -0.022621061822026476, 0.0571584221564228, -0.05458939166940869], [-0.07135655452302563, 0.007647315465553039, -0.11001257676842274, 0.10620084147068261, -0.033548463742782135, 0.10395025117375595, 0.12304504096184196, 0.05942002112380853, 0.04749235128042384, -0.02522319919341355, -0.035411545095774245, 0.026157967749684683, -0.06217933496402811, -0.06208317601965796, -0.048578286111375116, 0.013182150319332887, -0.06232451977387974, 0.0065684599058853975, -0.04296773603126391, -0.08054675803425164, -0.09345326357442477, 0.007190862767970948, -0.04701317323907646, -0.02869704391266394, -0.02655787445635297, -0.027900603132682285, -0.035201111904098935, 0.04060293364590554, -0.024692775962794622, 0.09357241297150502, 0.010064478488633307, -0.09561934423849129, 0.030222478170221872, -0.07598431255988887, -0.09842288117185817, -0.05063493974452807, -0.02299277494072676, 0.030425241635889676, -0.10884985600258212, 0.0653508591346744, 0.024742335883557343, -0.009598791381055544, -0.0369043241475721, -0.08220850698282135, 0.029141604804892845, 0.11855783210263825, -0.047920899356092346, 0.024392678018192445, -0.07591121270807427, 0.0021648638255324175, -0.013974876819859657, 0.024453817431021332, -0.07336529847557599, -0.08843012424400247, 0.09921640292872341, -1.9620987804045786e-05, -0.040197073512971304, 0.11745836951913709, -0.03591995339939949, -0.08125262022193923, 0.11822944898839884, 0.11022970128311138, 0.031417287171563134, 0.002161048944690461], [0.05225107137963403, -0.06398408777753775, -0.04824556160311108, 0.024106368527192643, 0.020585401802266652, 0.08832228967837553, 0.003915740832479004, 0.027833731188713677, -0.050484927029216906, 0.10547363871132359, 0.11945927316126129, -0.09055229948950368, -0.0839711855541932, 0.015568368174235393, 0.11953263120950817, 0.05225883959957559, 0.07798889049907502, -0.07479322482958903, -0.02925584032342726, 0.1110606745909725, -0.062949662053875, 0.12525918139167155, -0.1153388118635801, 0.1056374085302047, 0.0995306513027732, -0.06798174254191384, -0.06247038068552428, 0.10828688218293979, -0.10980801259618563, 0.06468166629086801, 0.04533620291695189, 0.10063428105743923, -0.06994341185764207, -0.01725200939391453, -0.12442200462148784, -0.008553091094283373, -0.08466950861745903, -0.10435537983839534, -0.05052740793943926, 0.025812666329569526, -0.02637691894804198, 0.09026092965580029, -0.010567807802567707, 0.06669062990594488, -0.03182452449588055, -0.057237649561212786, -0.0728290366082216, -0.10828299255130945, 0.06345539447306842, -0.018767796049706586, 0.10096758714346804, -0.11706659455644125, -0.09459531823426592, 0.016094045621847297, -0.062479741135209745, 0.018719585093884675, 0.11532912773295563, -0.08683186792899884, -0.12454386396990128, -0.07122867802765867, -0.0890462539307737, -0.013375865229853512, 0.012915175044118704, 0.11021348266413697], [-0.0071972253051121975, -0.031482667170452526, -0.10428452323826086, 0.02373102381131588, -0.032187983425442095, 0.00848415524135894, -0.05939793259483391, -0.12083991313878717, 0.08059177918874487, 0.11019534702666187, -0.05635681965749116, -0.09618452070700384, -0.02258585520316081, 0.0970105880937507, 0.014028991448993063, 0.0004672223309153136, 0.06899645317005824, -0.03596636881769278, 0.06934508889333105, -0.0700791787484005, -0.07876021654971176, 0.014448747540536032, -0.013258368981581298, 0.0750735355589423, -0.05564294277697578, 0.08981975070432924, -0.03305384193159132, 0.030642264791055356, 0.0918229545397299, -0.08991689839679767, -0.06685632954502947, -0.01720493342138706, -0.02484149816883716, 0.018794629846409557, 0.1278043502594488, 0.07788928400890191, -0.015976011543218614, -0.07371542653680858, -0.08779906424825844, -0.11695896114395804, 0.09118793809659355, -0.004793156321355597, -0.09329670614952637, -0.10859078745993024, -0.06179145684653375, 0.021088717771597147, -0.09015150899317707, 0.0057309024731868165, 0.035526779652970894, 0.014087302537104787, 0.06107528600501061, -0.028978701528672646, -0.06256847498536221, 0.10973156172953968, -0.1189509170026219, -0.0159763615435131, -0.02008363542949043, 0.02246104721944854, 0.08527600413375432, -0.11625009244113915, -0.09386015656406808, 0.10427861921729659, 0.07834212682274093, -0.045724975793265656], [-0.008658864133844507, -0.03021096862538124, 0.03162261203715528, 0.09211481331759021, -0.007446386074795579, 0.06273517327730124, 0.02578937390844593, 0.08291778151202653, -0.09188881787763338, -0.02462421823251447, -0.09014454385728442, -0.05522367114294133, -0.010874769110471525, -0.08950614909158887, 0.100064828239227, -0.036345589238381985, -0.028173703372075126, 0.10127090617074558, 0.046891061195571695, -0.11242861463924127, 0.0028043714780054186, 0.1061985613659726, 0.021903578012471465, 0.04289710292702504, 0.059908132766263986, 0.04934234736392872, 0.0681921813355493, 0.045574718931266134, -0.11096278224940888, 0.11679691253845645, 0.039169108039360356, 0.08047654724580464, 0.0733963633956869, -0.12323781231460357, -0.02023951484748789, 0.035887589321954926, 0.03465881103742734, 0.0404269462047454, -0.08369340121527931, -0.023084718614609406, 0.016364793390933326, -0.07218826898000917, 0.011965091779664285, -0.06846030110568695, -0.03430625619421281, 0.070915830054984, -0.05968929195782873, 0.0981121983937842, 0.10122653832962382, 0.05641945596878324, -0.01537225457379717, -0.0781767592326276, 0.06587258814865879, 0.10830329520344616, -0.04693178793331448, -0.09434118009736688, 0.010472261853054585, 0.03951496272879471, -0.08718985993968267, -0.11540313020301711, 0.10320006510896836, -0.046432576907497185, -0.08762758259474283, -0.057931049236181635], [-0.12336919821564324, 0.013319566093340653, -0.025079314782944017, -0.10635012834373875, 0.11862899700910848, -0.09876754603266022, -0.05860306429272748, 0.07252406943499143, -0.010506233282297137, -0.10547944195802067, 0.11508170621442748, -0.07121210313415234, -0.12435438125502345, -0.06347727689099522, -0.03661846915297817, 0.04117923972969206, -0.03780360452702866, 0.03470321019523263, 0.08445321987109605, -0.02002523209579253, -0.08668975594863182, 0.044542402819989724, 0.0547381905675377, 0.10049901326299714, 0.0982599970812912, -0.11835562012286806, 0.0936785222084491, 0.1053989510080266, -0.06692052918146553, -0.10691730706603429, 0.094303962096989, -0.07530268881824616, -0.026229280426353738, 0.12099661612144114, -0.11867974772762793, -0.09061831833284395, 0.010395691987858866, -0.11847708380146581, -0.05856675312641454, 0.09178588856064628, -0.017845467081782126, 0.06809489421910578, -0.07106449542750172, -0.0487597550985709, -0.09207776137065107, 0.056366935649689975, 0.12207045693537089, 0.10818353856296258, 0.08933440228469731, 0.04485941998797783, 0.07059659096266785, 0.0872726586736181, -0.03858868304024556, -0.10369359693010646, 0.05088139703757029, 0.000534579061491655, 0.04670777455066338, 0.007276947876587387, 0.006994139830265846, -0.011306767798521076, 0.06077634047764578, -0.04089563673997163, 0.02265420853359169, -0.048626437953918744], [0.0724182954127545, -0.09443061913667683, -0.03995364460289559, 0.09137411666434148, -0.040319082314346735, -0.09983911208550893, -0.02684485662891693, -0.0016621987867103656, -0.01624542225384833, 0.044507886491513445, -0.015542345201007649, -0.02560677552454831, -0.07240298423687735, 0.10803669622359538, 0.019828192650784157, 0.02914575950901587, 0.04920434108267498, -0.06786646802559157, -0.07922410678242384, -0.08357423093036487, -0.015581135293687112, -0.04459817495304018, 0.02164761054515115, 0.09012109035865322, 0.045581620384287036, 0.12081778114910274, -0.0007206189427982791, -0.1128740289897285, -0.029065680003720316, -0.08153262452719408, -0.08468125030982782, -0.004737184732563205, 0.02869318618420231, 0.03968746977124366, 0.09687225090941719, -0.0373706262337824, -0.04502719879195572, 0.06105764203328677, 0.07132546052831527, -0.013945077220253746, 0.06673070585073732, 0.07518228269651313, -0.1183735839607655, -0.07720988798162409, -0.02351961015731005, -0.10958863282450225, -0.07204971936805592, -0.04664271688153885, -0.07106043822094457, -0.11655837400625195, 0.11776584864848047, 0.02959767790697881, 0.12399143000341534, 0.07649162054493779, -0.1054828192841608, -0.03861817420480559, -0.009406252587341894, -0.045364827261816, 0.11232957333949774, -0.017413713383999403, -0.04819282187061863, 0.03912534411989135, 0.029272474918056606, 0.07248154491369817], [0.09543422471208944, -0.08634244477848564, 0.05827774332051742, 0.05601509952583739, -0.02101585691572012, -0.0950224738442862, -0.004545544107330416, -0.019317756749706774, -0.1119599094575507, 0.06461745981611212, 0.03858937542336539, -0.07874101225498026, 0.024141818856443505, 0.07734391992703683, 0.029192293712669178, -0.04611894080675347, 0.08610167922920633, -0.07127122921248776, -0.09632888234056661, 0.12427041181050202, -0.11434107825405267, -0.0788707106872075, -0.05586293705129134, 0.06049212632560244, -0.013646121762765532, 0.024179920076886192, 0.0760151832013993, 0.03035128626819117, 0.09382257835850077, 0.08634357831925679, -0.08994481306697524, -0.004269560169103601, -0.075474683784149, -0.11707535877422784, -0.002576762199866316, -0.07240448899351913, -0.000648473543391788, -0.09198231973767518, -0.023338956049142184, -0.10815508739201374, -0.06194027020829293, 0.07166334344455759, -0.06217728615381241, 0.046569092114020105, -0.029732849817622118, -0.03834841096936165, -0.08517292351187042, 0.014700118691983588, -0.10233824278100366, -0.06062454065061587, 0.017541898463830457, 0.03887073124791273, -0.10310978545939768, -0.03146330616229633, 0.054731510307377856, -0.05175309784760865, 0.10078711684747577, 0.11939352831622256, 0.07214388151373104, 0.1173818302524477, 0.03737583314039533, 0.07207050606396978, -0.11485468190060563, 0.11735196495706601], [0.0611321222777509, 0.023986162882660624, -0.06322966654979137, -0.11589035172982091, -0.01940694149854595, -0.020996110580787354, -0.026122910057711522, 0.11099933012505074, 0.04433707990025447, 0.062283660196233284, -0.11127640190294324, 0.07464159308059372, -0.10966960946354357, -0.03683543080400342, 0.09538610641042237, 0.05403323525505027, 0.018702196243289608, -0.1201206413744848, -0.03093076671869848, -0.0016070516880229459, -0.11302743705734138, 0.0006131036203130654, -0.05646904467301344, 0.034464207318167156, 0.10027260929773504, 0.06797740128936473, -0.0344569894867261, -0.0995308031588647, -0.015814854349095304, 0.011306881058923511, 0.08036141410454471, 0.09440578741589055, -0.05317377094476613, 0.12438076049818096, 0.042662045756535656, 0.005195552054102781, 0.12175957635497169, -0.03220065884002056, -0.07993716932625687, 0.010990964493883731, 0.11296621772214173, -0.09830692170582461, 0.010649192746602759, -0.01372242851736152, 0.036508635909353, 0.12468734996606637, -0.0141003468874551, -0.10382026137723499, 0.11796490796031524, 0.053165563188063314, 0.008983842767608925, 0.11909238005404615, -0.035566181254101124, 0.1137576352588929, -0.05746912024740808, 0.0909589154942114, -0.02662860266998242, -0.03367530601770267, 0.07167278007053819, 0.11526436698548188, -0.07295877333001785, -0.09016377147736153, -0.10492733721686962, 0.1193187474953998], [-0.07834042138257884, -0.05732540362505969, 0.10298299622988669, -0.11909064075296949, 0.11490651729146782, -0.09504143943434593, -0.028146501213617642, -0.05244498162323039, -0.11150461413913927, 0.11400182530067951, -0.0033369120430551055, -0.039627383952497194, 0.0910994645968161, 0.10960921898138104, -0.08187609133086836, 0.043735728097252784, -0.10963221499455064, 0.1071210798589082, -0.09719743965585502, -0.09541070648141363, 0.09442986243914399, -0.03497286966848189, -0.025060521507191222, -0.00400677944966367, -0.09160499369884595, -0.053177142849535265, -0.10378646271960656, 0.07334938598867523, -0.07943505156529275, 0.026300396941864212, 0.024915406907156757, -0.06464577094202391, -0.028908165991893223, -0.04772671644453228, 0.04140706932630982, 0.11572582861475256, -0.10843904510623355, 0.009058300724225737, 0.011396156619123132, 0.009166161662434643, -0.05295464934324713, -0.12496357705206043, 0.10460894862628202, -0.12150789345337341, -0.08768951986710125, -0.04387081398936562, -0.11570474518353584, -0.08452681347880128, 0.05042998803446186, 0.03032311550508818, -0.08177352946940873, -0.003211548916865208, 0.11140131507925055, 0.020536089534166708, 0.06753696580845987, -0.014189160630303836, 0.056589817968850216, -0.0808641248272044, -0.11053366354684308, -0.08664724720514998, 0.06711142363958508, 0.11587613611313186, -0.051500028617804255, 0.07714573708723145], [-0.02263166768537213, 0.09428905627280938, -0.089815931192607, 0.07755287856754337, 0.12380378627545248, -0.06680109619830545, -0.10536558981965653, 0.017134469358297027, -0.049937065037407344, 0.01603849853013012, -0.0868863880771434, 0.07252638647412211, 0.037404486864457985, 0.0746732635259266, 0.039325543243760655, 0.10165051945151655, 0.08537384730159416, -0.09689077906560327, 0.08032212889879614, -0.0733035347745516, -0.037226267880767126, 0.05829359861576515, 0.09449663379155952, -0.09637957821749715, 0.026481511765277063, 0.07315661801274943, -0.05533846871961989, 0.09916726904504733, 0.02438387067736397, -0.06743882124756927, -0.06629527605867136, -0.12349980975975992, -0.031153094357983958, 0.026291915818954018, -0.10731700728894153, -0.1026753450343974, -0.026417139209545627, 0.016166547923107896, -0.047031856481346, 0.023840885881650706, -0.10759280971644763, 0.0224675770342378, 0.0687150565018465, 0.07618974139932769, -0.06981165805135041, -0.000525845269349384, -0.04978371865550057, 0.1123770760357631, 0.0032833942310560187, -0.10208625513905997, -0.08019357318080292, 0.11444814961060522, -0.03800378399551984, -0.08412302924512063, 0.029996500142441606, -0.05031196389744837, -0.11377250246927607, -0.12304814285674992, -0.1018956467418078, -0.07922563988848547, 0.0019419966819245466, -0.02236661404797044, 0.034592913094175566, -0.040354883948043936], [0.12091626721404833, 0.12208973963819912, 0.05280910092913356, -0.030423742244499306, 0.09274819010274596, 0.03211878947684738, -0.00857007253487991, 0.06550356812510742, 0.10271895025640575, 0.03234804454626556, 0.03627868521290377, 0.12292779552352325, -0.018734578028375675, -0.11082399963084327, 0.09710482016470386, -0.1231766313802358, 0.08426390721119713, 0.028632060778172756, -0.026368793849985087, 0.11850989034749272, 0.039409983998918215, -0.007139395321943578, -0.05254340015394327, -0.06919822128405412, -0.08582721442366645, 0.07847847247902062, 0.0306175565671221, -0.004319493600446033, 0.010491593214029251, 0.0012910567850099813, 0.09323312650945663, -0.002082266296887743, 0.005555990775607757, -0.02494767280639143, 0.09148152882654316, -0.04264890733779869, -0.12361129824612901, -0.05636218327789368, 0.04134113227904934, -0.0919623715354255, -0.005086724614777916, 0.09239654428730204, 0.09446768269036912, -0.0989310746522357, 0.016090988090566225, 0.018792232504179357, 0.11497770420157973, -0.0057770966789113636, -0.12524842933874272, -0.09768365441002501, 0.02984338285451349, -0.11661772609864222, -0.012027555646483092, -0.003553528811188279, 0.026279415980039522, 0.016692935517084576, 0.09550646619770328, -0.04487866026088228, 0.06220762573411134, 0.013628490207032181, 0.11651870453753022, -0.002095917878939687, -0.01586171338769771, -0.04576009350837924], [0.08588715993872377, -0.10912157263975777, 0.0760324021238125, 0.025418570345311246, -0.046030267552041, -0.10667424757579447, 0.10890151858807358, 0.05709824071512069, 0.06442742966683994, -0.10138006995598439, 0.10430219952047452, 0.04546855181537345, 0.024858047141312418, 0.048120494298282, 0.06800630540765208, -0.014280575540792545, -0.04186073506674374, -0.0386814848005434, -0.10769472709251576, -0.0001497267195650657, -0.0379668649879202, -0.05302310031657168, 0.02712424291071029, -0.025038217294715802, 0.12182323442135311, 0.06305927919093793, -0.08576013840273491, -0.004951165199453494, -0.06042703228594125, -0.02895849567048071, -0.12009461820011698, 0.09464775910357794, -0.011611914114393204, -0.10748303177431652, -0.02811419711723812, 0.12255070566541637, -0.04897571217539755, -0.03414244105703902, -0.08102149494782064, -0.012883888532234523, -0.1093565410728702, 0.05285467560425382, -0.029940589051323362, -0.1049690340562534, -0.06002344675759956, -0.007840968691964665, -0.0912648472980243, 0.03651867516641313, -0.0895107322105924, 0.003137685741863161, 0.10738306390046391, -0.06385260475184373, 0.00019664034578967612, -0.07392060785269015, 0.09219588788305946, -0.05853830226951581, -0.09291388052715178, -0.013408429559441727, -0.05614505179932492, 0.037632465791850415, -0.10622570124199536, -0.09778743769823005, -0.02904960400601599, -0.035208827364529016], [-0.03711644392002999, -0.02518567076995807, 0.11088786588691317, -0.06345436801296452, -0.021319185491818243, -0.08029797503573223, -0.07487625205522018, -0.0748395979276, -0.10763346257604427, 0.06419324473206459, -0.05669107602127749, -0.010271781219939317, 0.1086555042763057, 0.009277430401304607, 0.024785077495407124, 0.013219756971675167, 0.11908545391016422, -0.09542762202245716, -0.002369741871380806, 0.06056442253050315, -0.026712322801010158, 0.0716332061888337, -0.07318821577395675, -0.09852296239204823, 0.052302984287080946, 0.09675848852727603, -0.04201640966038889, 0.061925014245575866, -0.03811343183266422, 0.04616853454994991, 0.010664653068401666, -0.0731735570293749, -0.0811116477036695, 0.09682514105077845, -0.03227499517995754, -0.06508210490663252, -0.10705163216966858, -0.03347151991920385, 0.06196024896005975, 0.06160484077419892, 0.06696016942609513, 0.09089946173595971, 0.07570370531451968, 0.0682069660013996, 0.0645608633051824, 0.12257498267172964, -0.049119650454196674, -0.06131843175879926, -0.041827419020395266, -0.11258364552867663, 0.11637192044607574, 0.12117129824890288, -0.10199741667283657, 0.08745384119818987, 0.10954570124982779, -0.051357192345239354, -0.11333893488854725, 0.03289774832323419, -0.05116545612620837, 0.06088700966137228, -0.08860357378741965, -0.11317275919026716, 0.019760210521546404, 0.1211252372432524], [-0.08560726942425555, -0.06867523799834885, -0.11347518351018959, 0.09725921111446614, 0.0367584272910125, -0.008490737199768518, -0.020219630905176315, 0.07494402666538423, -0.003670133104152621, -0.049915103793340486, -0.0074935577037124265, 0.07211919524270434, 0.01732434832732913, -0.028981513757264897, -0.1107182536511535, 0.014387229656497604, 0.08534497215574378, 0.018003975083169917, 0.038006395676949654, 0.010011270642609565, -0.10615824457372762, -0.013852661160979395, 0.0621712315416144, 0.03633762488355831, -0.05955656510014968, -0.03179590371608303, 0.10769741706479752, 0.10991827135233924, 0.07485966314407383, -0.08944525688692835, 0.06132808344980493, -0.01200742571413601, -0.10296879117666402, 0.12094705341977321, 0.10129717442067719, -0.08769437905387133, -0.0065426952764243915, 0.0660350260761286, 0.05584431979806485, -0.11918640945265932, 0.0976130572170716, 0.11080549356895673, -0.11458541560278641, -0.10408691588453424, 0.10066666304920018, 0.07625172638315696, -0.046216381741297316, 0.10970526183993762, -0.06546517154098287, -0.04642304569306097, 0.09229426304588068, 0.0060505693873951025, -0.05600418247724097, 0.08754015738441158, 0.05649924096470653, -0.024548309694972653, -0.04705688216748828, 0.10736231455336609, 0.0691173447636547, 0.11010032897277057, 0.0826342374457989, 0.10514489827388725, -0.01277602828536246, 0.013011730500133857], [-0.03579194155303858, 0.0246025871969652, -0.027052475904712648, -0.11475111230312472, 0.08785489333519161, -0.04999464452278127, -0.10692106712544619, 0.12397467776927433, 0.1216873823866601, -0.05323474957685295, 0.016347602934315614, -0.11721964400040984, -0.12044999814935375, 0.07890674683143352, -0.07971470578423152, 0.013460350006012051, -0.04375834511930614, -0.05811395072300149, 0.11137567417508185, 0.02657710443538679, -0.1004665355756568, 0.02552761350110179, -0.036885903090756796, -0.06681155004327674, 0.12318727261169679, -0.06745129827267195, -0.09053049848934035, 0.03649351181205781, 0.11902084879227694, -0.04541221924984647, -0.06435885448847965, -0.02351200111928379, 0.10963116537175156, -0.032210564396956846, -0.006465418302989579, 0.03403326641983886, -0.11567089587733012, 0.08789314796567331, 0.0684308218019581, -0.06861406774360594, -0.09649818882158222, -0.013326815848600439, -0.03423467793643559, 0.07792808644953701, 0.09596029432333283, -0.006814817543614912, -0.023415137975724552, -0.06542216566365895, 0.12365660005061954, 0.07326763609314367, -0.06596491919285856, -0.12165932419902234, -0.023801938802960474, -0.006601783458598382, 0.002299660053963315, -0.06572195122670843, 0.10917502173853384, -0.044741997214660115, -0.1009948078296399, -0.05891404325375351, -0.07886017242350617, -0.05926282908267351, 0.08200302112094102, -0.046115821554839], [-0.027870941265575013, -0.006855147179385983, 0.03609306347667093, -0.10967966324694017, -0.06264381642330401, 0.10937156659604622, -0.11540704050996771, -0.08783357110294336, 0.11158415957234935, -0.08707232974477461, -0.11843645672580386, -0.021823106071314703, -0.0813810779689459, -0.042914037029514136, -0.02698340527685206, 0.0024681039804381544, -0.06925864359486404, 0.02956995575760182, -0.09423798730688988, 0.006854921974433626, 0.004856751649618441, -0.004982022841340638, -0.005907324847691253, 0.1105375105324485, 0.02766796331527652, -0.03455180091763508, 0.0005875347426240278, -0.04885808350436709, 0.028522129726964322, 0.04352661388333955, -0.11160827560574432, 0.06544189508304124, 0.09033597894920095, 0.10859543130378653, 0.106193529313454, 0.0019949294662736025, 0.0424024239753801, 0.0813222797211877, 0.11622595224248175, -0.08965882850764127, -0.0020783448732334866, 0.06076296993456855, -0.021971054097633582, 0.029935853198287534, -0.0541567484049144, -0.020677507237649558, -0.07910573860559823, 0.013876331743733965, -0.1076012078943436, 0.08432412003329252, -0.12465485370431131, -0.00590545714041416, -0.06562542504923824, 0.09574277950630798, 0.11063985135851974, -0.046979243208011265, -0.04366191169455829, 0.03446636288473069, 0.12265611091390284, 0.02322185071986316, 0.031782940193257204, -0.008949349021198623, 0.10303060723233061, -0.02605214824735413], [-0.10465775529739561, 0.04236611375153582, 0.08688312385723838, -0.0741611680647354, -0.015066580423617588, 0.0032600900382308176, 0.014490150510013657, 0.0012797100729212026, -0.09834301893009272, -0.07655859585256049, 0.04440779833226224, -0.11809566757962442, -0.046692082088667985, -0.05538836799970325, -0.004564956601994534, -0.05986092977089715, 0.04934827942687343, 0.10313451014354431, -0.048282828434085844, 0.06351206947517968, 0.07146855905759289, -0.07883609882078137, 0.11748922917314782, 0.05797788702172679, -0.07301634911636451, 0.01300690821200377, 0.11430318151204945, -0.06470226264034122, 0.07970970358732761, 0.011275997017442667, 0.016093014871974908, -0.1064053274162263, -0.03166750344075292, -0.015517931338688132, -0.006554174659668639, -0.013494377525027933, 0.03931845169694157, 0.0621191789640818, 0.05559242881940025, -0.012029633033077384, -0.00944488911654235, -0.10439804856509682, -0.06981044524661437, -0.11503875238875272, -0.10838890249928136, 0.10764632085517087, 0.03237273684060447, -0.08103696003891175, -0.0438457305692522, 0.04444716485252438, -0.0033689201161002467, 0.07703866823372456, 0.09758743254342585, -0.0945862794675463, -0.11297490049893802, -0.12006867048871694, -0.06359963517174037, 0.026410221116581385, 0.019243968401944485, 0.045842858658580836, 0.11745775990010045, 0.07485014546798115, -0.053022835595841755, 0.07552352020984388], [0.03226263430841473, 0.09655855248685727, -0.02451395927994781, 0.018654127726174877, -0.02816962028357579, -0.12009135902698263, -0.060501693319422706, -0.08576175056848999, 0.021115677612414143, 0.02643067626124842, 0.05807996238161638, 0.09012374165281387, -0.10870791777803576, 0.10134126120303154, 0.03048855433908013, 0.008809746852034096, -0.05267530155903271, -0.043484191594831224, -0.1210685197653526, 0.0333342425091898, 0.05157541043651942, 0.04437491144659484, -0.1136292906404637, -0.018782406160091226, -0.06412271280575539, -0.01436979788007712, 0.07487123896402802, 0.03708063566304457, -0.10436270268544406, -0.09269809837642827, 0.009097701037447272, 0.07139919644188093, -0.03771318529148664, 0.0037023458599474914, 0.05791392245733801, 0.12477894284488739, 0.03839228068297407, 0.015253798915958029, 0.09087296770754662, 0.04939882577013908, 0.08114078148706569, 0.020239135288755084, -0.08200173798082866, -0.001342361365922188, 0.011886197421151731, -0.07503909573682892, -0.09992005727689825, -0.062063601238893, 0.12134332810519183, -0.019621550682138833, -0.028598037962203837, 0.07112091439356588, 0.09300963260573716, -0.1035977867775966, -0.06552880443167808, 0.031077831403112023, 0.088358149406207, 0.07636607509437629, -0.03878240204460422, -0.08202899809001228, -0.0319715714628701, -0.023006137251959977, 0.09892276179966498, -0.025089851767571406], [0.024636814383843558, 0.05018221870919994, -0.10048772207748828, -0.0837740099510632, -0.015068665584549057, -0.03995313930614914, -0.09007700051797915, -0.10188377736803977, 0.0940529414329815, -0.013861689483357344, 0.06937809165463453, 0.06507513997840507, -0.012431981040235589, -0.0432895703127459, -0.0355601139436517, 0.10626912963020999, 0.10420884299636644, 0.09911339294145599, -0.09371219851786439, -0.03168894810592525, -0.008348789958680937, 0.07690788283819787, -0.05252249900816254, 0.05572671575984357, 0.013168645254066807, 0.015603876601305761, 0.051229726216055094, 0.022782374856312154, -0.058590062639722426, 0.003092610476868674, -0.09712887926147468, -0.07251665801249549, -0.1122507260454455, 0.0439307257979859, 0.0421534589225746, 0.024859807229001316, 0.04810806196723142, -0.10413650450616191, 0.018979399705536686, -0.050927715878604146, 0.06481818635604511, -0.0663166838817687, -0.11513027056324342, -0.05756395868537175, -0.01616373605050658, -0.05720264511867028, -0.04298042669987377, 0.07807449771096653, 0.03729887796794643, -0.11357268332577507, 0.06521612543417625, -0.11175360415890619, -0.10947313064035674, 0.015959440994790557, -0.052726729815334175, -0.058810947783756, 0.04361246432006293, 0.04975659256053619, -0.08568983232496899, 0.015631543319998435, -0.029200462456858475, -0.04820838897640399, -0.10988331628577007, 0.10937651045779143], [0.11205495884483849, 0.014349412188328584, -0.09863064898451428, 0.08870343536394129, -0.04515179788306979, -0.0665155619875796, 0.016041412703139656, -0.07882667070793842, 0.08727679862514746, 0.03348788675305728, 0.06533382129498191, -0.013508032623445574, 0.09263855779695221, 0.005322966223356337, 0.026139607877855603, 0.09677336265864525, 0.09149185911191995, 0.009824665379318224, 0.09518707156843846, -0.11269915899123939, 0.03554784112140081, -0.048106354472804, 0.04534372137035182, -0.07222696782315889, -0.036124294825050605, -0.044314090078818084, 0.05890299213363329, -0.1186739728513747, 0.024078804810810213, 0.03891683717681175, 0.074887715712359, 0.006133735813148464, -0.09497630229431173, -0.04691665022526041, 0.03127676306046757, 0.013405290007672809, -0.07874820988234861, -0.12490476735868948, -0.0232786361172014, 0.0140696144341071, 0.08314745666235444, 0.10465914522087412, 0.12011054968928678, 0.005429909259237432, 0.08052972868046848, -0.10956165777456064, -0.019850675655237893, 0.06758609777412591, -0.048806574427106654, -0.02320546389651419, -0.10925769217864313, -0.09154759297576129, 0.049658520461585025, -0.0683176133904036, -0.038166349816425346, 0.11462901877787036, 0.02496544772772992, 0.03490243386124537, -0.06095493216347415, -0.06554596275379712, 0.1104922061699573, -0.025058172133468934, -0.0007482103069462385, -0.11199110829949953], [0.12128633778564674, 0.07161872887561474, 0.11340957641506076, -0.03198224968049108, -0.09486057014608924, -0.04379673033821612, -0.051669733438493175, -0.08615202560907945, 0.06225335314262962, 0.12263364215393788, -0.11783472566634386, 0.006119710630342037, -0.10432710656179171, -0.03425608434071101, 0.04057479558720132, 0.06898464639504177, 0.07679939733062771, -0.11334612337083637, 0.10553283295653085, 0.032675443786578266, -0.08526889844323918, 0.06653869335646581, 0.011800766416563723, -0.04138706594783018, -0.06752859508204083, 0.1227561995732656, -0.048135548533710666, 0.06419662311545549, 0.048345467611542806, -0.02809242020552486, -0.0015828017922790531, 0.07574934734479945, 0.015397548954754226, 0.04498828545612033, -0.041822923278489486, -0.11526985100077049, 0.10308810615296357, 0.0967989732053004, -0.048544740462581254, 0.03384012002782071, 0.11632521967797507, -0.031351355303185224, 0.0015823299894459505, -0.05146053537441593, -0.0873542430288543, -0.030463484154618654, 0.08978633774105182, 0.09971792593847624, -0.05188338834846529, -0.06654115687736943, -0.10029915095743891, -0.01837811116492025, -0.01920022491652529, 0.0245997127204768, 0.11220772517859, 0.023496302330905897, 0.10337549626320656, 0.08183577993143078, -0.061689326190197756, -0.011340080055831866, -0.04212332993957008, -0.01386739754745499, -0.05835533905915289, -0.06739972360957892], [-0.019829936734754902, 0.01911479141775728, 0.012646189621419774, -0.0408362019283257, -0.04783969330102516, -0.09738249579896953, -0.015913292634841716, 0.026741129597512795, -0.07744374539854212, -0.07516598284190633, -0.0546937694677825, -0.0060604204059440045, -0.06741308730545213, 0.01971260792741832, -0.07630807820176064, 0.0772082684771271, 0.06946597283744617, -0.10108717614276147, -0.060584744645227756, 0.1140408039642418, -0.04010276732138098, 0.037410366278887774, 0.028643243974698286, -0.019420783530072493, -0.08835741929543367, 0.05500729031079751, -0.0675575360013599, -0.001424155520358275, 0.010126592148018974, -0.022962402961384767, -0.012566000528222708, 0.11850461580586877, 0.06259863318863733, 0.10437218833624981, 0.09887191660909139, -0.09832357918684664, -0.11841916714685251, -0.08219618444230793, 0.018554099863750662, 0.022300637049286504, -0.00841971911665138, -0.06958811167115452, 0.0020762382981814992, 0.0019624385118794507, -0.06306301076608635, 0.1007132774677882, -2.6080415894612976e-05, 0.08947549692472315, -0.037126076798506845, -0.09170730590304274, -0.10612052704304101, -0.07307080950281222, -0.06801314722416954, -0.10313227645966301, 0.1249886198765339, 0.10883516274773121, -0.05922917922484201, -0.03597968781232729, -0.0894418210964175, -0.03812327634593199, -0.0684510336245142, -0.10181780427607591, 0.08083907153847329, 0.08772818646623329], [-0.04662131707830879, -0.12212129321350063, -0.0775998630669645, -0.06482062393349174, 0.058826964741446476, 0.1195541826977272, 0.0005554784217331399, -0.1158449324353681, -0.0822103909686304, 0.07801240609354375, 0.026868737102572093, 0.03579119106340104, 0.08297213332249101, 0.0730058985400498, -0.06195768225590041, -0.10592841428123895, -0.07594316859347086, -0.07090566952778, -0.059758003249522816, 0.057200026009927234, 0.09175427625284448, -0.04592717110740652, 0.11634719752123797, 0.044318714203948936, -0.015964029322646064, 0.009814118289166925, 0.04380234913865702, 0.07383109399315685, -0.0005048819997198601, -0.04776624568803802, -0.046499519268818575, 0.08911893327076881, -0.010071838029257598, -0.11617748473039244, 0.06970094326615107, 0.04765461601433032, -0.10800105315514515, -0.07941981832911135, 0.10057068865344156, -0.04200288010304713, -0.1205850784927922, 0.11469110903936211, -0.05822503105497351, 0.10998410823853406, -0.043450614376089935, -0.08129821139677007, 0.0188251607140893, -0.08108758413344405, 0.01871283136909168, 0.020798738262397608, 0.011662725041933338, 0.029952251010160264, -0.0009490933997476516, 0.12109866274365431, 0.06847378304644099, 0.031083627871509655, 0.04339940778900226, -0.07754465143247168, -0.054126059011924986, 0.10521136159799996, 0.0446058485846556, 0.08934154939065761, 0.12348250452779039, -0.08415300429970152], [-0.09524560329723805, -0.11648368956298974, 0.00759640204800338, -0.011365056546368008, 0.029454951494246186, -0.08071878694982862, -0.03584366656766774, 0.07406866856126361, -0.11077839187681977, -0.058623142697742124, -0.010147066963206977, -0.06056186651840868, 0.07009440873135302, -0.004828371156294107, -0.06276050730456563, 0.011817352893304189, 0.08714188295076462, 0.08341505491001559, 0.04751626907736199, 0.009195202494952455, 0.0773662427188947, 0.12058384663761273, -0.1062389949894475, -0.0800272028715798, 0.07875358785613268, -0.03776318341431144, -0.07532090190886347, -0.09695398808787047, -0.049455097556497456, 0.009841754707730483, -0.10190075017091088, -0.09231387272168613, 0.07899833336105397, 0.10489138022707123, 0.08386070229897347, 0.02292491108003364, 0.11014087632443506, -0.09937313242638951, -0.03848231947823965, 0.04190386116863387, 0.04377747589460331, 0.11387108085200658, -0.0187596554612301, -0.05989856461861375, 0.11524439110630202, 0.03106161447157662, 0.0484275724550446, -0.05993589462263525, -0.012452142939254564, 0.10989142575744171, -0.008760611103320007, 0.04722308366955104, 0.11797875822635857, -0.013886843462345266, 0.10637496786553526, -0.08075315670934866, 0.010541545497419402, -0.08239540354328823, -0.019721357283300024, -0.10991790381004524, -0.09697007255564884, -0.0904292992239491, 0.1200556985662269, -0.05183540426625077], [0.0386286332904591, -0.007375836779703526, 0.026538064164282144, -0.07299572428027457, 0.012093948770132151, 0.08345309886909262, -0.062445711404335344, -0.09666614962698414, 0.023634441553327404, 0.09324780033762473, 0.04545326150628093, -0.019434271646793465, -0.03979195675186591, -0.12057803346548407, 0.12042571357685361, -0.10827200478529345, 0.10205451352342715, -0.0648762624418175, 0.04391575917528535, 0.08664078567550065, 0.025357889610280647, 0.059987348878306, 0.06877161132105174, 0.09407395256584523, -0.03289229891044132, 0.10608350100240582, 0.05657465422892817, 0.06548450086119442, -0.1086184736094491, -0.01671824026107811, -0.08000570532686897, -0.033513293917794985, -0.04382041865774913, -0.04207751853019413, -0.05188000968307127, -0.0021955858389502213, 0.10585921517198962, -0.12490810064027172, -0.0379826192351512, -0.06086885812378041, 0.0914888730855721, -0.01146445683476782, -0.12623380707103837, -0.12226808112375605, -0.09868452904910942, 0.014065939807566218, 0.08368068886237523, -0.027818063357218877, 0.07939406926814892, -0.01725792487812107, -0.089265686087049, -0.04621321666989804, 0.07297617740640787, 0.0010075694556052606, -0.0025621997140497323, 0.11936011883718343, 0.037660930785469116, -0.12443993703754944, 0.041186099030031016, 0.004406982465431904, -0.04595848723227303, -0.075039276300152, -0.03722686955272486, -0.06679040093190117], [-0.09472295028746927, -0.12005092294104056, 0.08436985162826623, 0.03588430611741963, 0.0011837556824168636, 0.1146516426377027, 0.07590040848273724, -0.09510374098591949, 0.09982070859102368, 0.07526465772837812, -0.009055766874982909, -0.09963826619098613, -0.08538236302973093, 0.03196613963002145, 0.03038423692781483, -0.03859471685198921, 0.10070863128835045, 0.02420667928127097, 0.05452021453902822, 0.11937692585635262, -0.1083225258850766, 0.020886321229692945, -0.05085733086473653, 0.026813883149871466, 0.015199938259655509, 0.10567302352190054, 0.01617544047413411, 0.11072058959119002, -0.05807771935267206, -0.07470769588183351, -0.04173691957691871, 0.12218014075912265, 0.09756025896674124, 0.1027919190084638, 0.05921047330096619, 0.11049837503458963, 0.047191241740598563, 0.07959736040227494, 0.051062972387428296, 0.040348776814895695, -0.02276170062523895, 0.02128173013853732, -0.026273494247125186, 0.02208223880763984, -0.10029250915123906, -0.09248304662861047, -0.03513145661989665, 0.056346981623195055, 0.10602599299655353, -0.08293005642736598, -0.055608101217838414, -0.06004921963139162, -0.01448153376534672, -0.10619811896993592, 0.08868877396350137, -0.0491356130186509, -0.09159279082056869, -0.050175471750973394, 0.002333568802472532, 0.10888593012366098, -0.0035201060819890447, -0.07696090953357843, -0.10608201102016432, 0.09301226471228828], [-0.10444934014886786, -0.0618448426880305, -0.12568964095590018, 0.05477282376526706, 0.08184027948291735, -0.01956154587324114, -0.12051974188055457, 0.06782362247504829, -0.008729401235864402, -0.09368516354773607, -0.022470436548781024, -0.08433645947609789, -0.06439055185539753, -0.015574051552518816, 0.05274363085432369, 0.12351274969887455, 0.06518882443963658, 0.11324713120790042, 0.053262086190460946, -0.08540687488723636, -0.03056159970393362, -0.043118154792711146, -0.07234793175606635, -0.11106221097980669, -0.06831114679336413, 0.09098028765710929, -0.03045808080804926, 0.05359106139156, 0.06984930093603892, 0.10377228373743175, 0.048567599041651664, -0.04372061306821377, 0.06090180474068635, -0.08505660728303774, -0.08411035079506456, -0.031880108569384495, -0.06246391065801958, -0.03201665970317096, 0.028537747241595853, -0.05292667366722093, -0.008295736788426097, -0.04230045918645262, -0.03224160270367604, -0.04852956219176831, 0.03198427483825071, -0.020689301732632386, 0.1230118036622805, -0.053080890398402275, -0.036074518253066346, -0.09456393906146084, 0.10766556743704184, -0.07783881492018972, 0.07904805248090771, 0.10851888703451391, 0.08009341361514279, -0.05444229658076928, 0.009770750540963238, -0.0018271039204528939, 0.07951151843211043, 0.07752207598864512, -0.08965726340082161, -0.09430055249059728, -0.01219241117319106, 0.11093399310212183], [-0.0004712217795150894, 0.029934288922707455, -0.0596788749432443, -0.04299674334925002, -0.06576111505572681, 0.12126195936967316, -0.061123101280657705, 0.11347012242177042, -0.0840638254856443, 0.06579725415124046, -0.008480190607539293, -0.04644548904336084, -0.1256063687308958, -0.018198086515858237, -0.08238703968625384, -0.010726478576863683, 0.06672594610150266, -0.06985746475278465, 0.09861803556949564, -0.01024674678658146, -0.09542893696379474, 0.05632918767666388, 3.277405697118602e-05, 0.07884126071709678, 0.02145075263414182, -0.08468750229453675, -0.06522719930041389, -0.11546762351549815, 0.08075133744594713, 0.011529268577584417, 0.06957013663028061, 0.012425168649971223, 0.01098584921537812, -0.005608576144856365, 0.10000905860032921, -0.10198269416984662, -0.1174551276384205, -0.037846465674035455, 0.030964990678134085, -0.014234841627571607, 0.028966625752655486, 0.018054143653874817, -0.102751090863244, -0.04919166356116327, 0.0741555479526158, -0.04380134115305022, 0.08607194521367971, 0.1237576587958587, -0.10059669519305438, -0.0861750231838521, 0.013073120774926356, 0.027358123540521796, -0.08701424828870478, 0.064763541219905, 0.005552055252150335, 0.10859251425548203, 0.06179644007939555, 0.1126078745519492, 0.08177072477725135, 0.0067859200000274155, -0.06723344442205342, 0.09957115131325553, -0.07305914189261614, -0.1027555907029493], [0.04464653033673915, -0.013087556407077143, -0.08453585280296985, -0.07369436478367027, 0.08213082562665038, -0.0571486823645435, -0.05544128363553939, -0.030200627736701763, -0.0658040386614073, 0.009801553586806937, 0.11635024431176014, -0.08171957353082, -0.07874374375026179, -0.011002145402765154, -0.052582791822789236, -0.10182758558647949, 0.02089771755039383, -0.07574583983365711, 0.10047005044889279, 0.08742621468768597, -0.07180062542566158, -0.036393675241016686, 0.0012729186969669384, -0.040293487806542634, -0.07131871376290497, -0.10557542033331282, 0.014721771721759794, 0.05511542255034864, -0.11934251584709897, 0.10292381856239564, -0.008498134000227997, 0.056691514868176245, -0.053514393276260494, -0.09632395162766894, 0.04478165532575679, -0.05667804481353627, 0.07606765647921299, -0.04551568373156392, 0.045662609057209445, -0.05126896935241493, 0.06775703902840541, -0.11206230126866985, -0.11042991238305724, 0.033625862857374914, -0.1150930611795128, 0.04006303542209583, -0.02395372227799569, 0.030190200500143427, 0.0013126924622103597, 0.1231766394700542, 0.11420621612407983, 0.10684263934589598, -0.10502931823817357, -0.10908037758672016, -0.0011047583534596172, -0.08692729347007874, -0.11598709796726016, 0.09328628982804316, -0.08573747317921351, -0.03767114449283262, -0.11456504967946983, -0.05356243744474722, -0.024000392965921668, 0.07295603669222765], [-0.04355394594887878, 0.10717413652759246, 0.026228747109956055, 0.11460343108921975, -0.10648922032785398, 0.07128642101209201, -0.0755702602681121, 0.041569305286880465, -0.04967425158380768, -0.09376863716416592, 0.030742456670351064, -0.07294078147371284, 0.1108780220664764, -0.05773256167092219, 0.06088541735793072, -0.09507391678448654, -0.06070789509960085, 0.011833545475911342, 0.061995593893557986, -0.08413276289035265, 0.1197359914309264, 0.04730214073032521, 0.10811205447722433, 0.11048814922323474, -0.10388069413998587, 0.0686031280857333, -0.089167899501963, -0.010007728409039216, -0.0356848056042346, 0.05596078969320928, -0.1183581981725698, 0.07469244407087254, -0.03634834941016518, -0.07250094353999138, 0.026535255947734773, 0.11843603752364301, 0.05732515048487722, 0.05466274871182575, -0.10243500944929589, 0.09734406157646168, -0.06388670364632774, -0.028288258044219427, -0.08064784144497113, -0.0721784796593451, -0.07690427331962951, -0.09925707653029246, 0.004243273670796468, 0.08005380791902851, -0.0493063895207262, -0.064895646128076, -0.04076406975357337, -0.020701104525787984, 0.026049807169220153, -0.05788399096952534, 0.037227214198412045, 0.04908088776270549, -0.10854472510595332, -0.03792398886351548, 0.07376957085983442, -0.024630320246480503, -0.06391384115840686, 0.10548173170782883, -0.0023570828893205854, -0.016098541948020118], [0.002227636303829047, -0.08933457737213729, 0.09545832874170257, -0.10333899631015232, 0.07911867211530295, 0.10123333345431831, 0.004479744202052589, -0.05073257090855742, -0.03645908684390589, -0.1041971088623651, 0.005009513023574058, 0.06764886189225346, 0.07324088025012779, -0.005509301687462416, 0.018920072649492716, 0.03162689241418021, -0.07462478353022947, 0.07848016407080169, 0.07611672750604714, -0.09728272178101398, -0.09837419652842161, -0.10435249578582236, 0.09467232172567731, 0.08394116279064269, 0.006904044460622394, -0.05649934429228374, -0.08205574107920308, 0.08170216883963848, -0.07764006049220068, 0.016410825147242753, -0.10044794155793282, 0.018753730563369393, 0.0036877523975706915, 0.06920171482745484, -0.08813632254335754, -0.09440294906097799, -0.039507588223930475, 0.09230211851517572, 0.009490259924990344, -0.0886491667154501, 0.054376486384202546, -0.10581980347464143, 0.0543985948031986, 0.07939283222643846, -0.009742869952703319, -0.07549468015316364, -0.019568512510041696, -0.09345101533415245, 0.022887787875016417, -0.029913913734962494, -0.060099426544291505, -0.06956708479500481, -0.0996183341857769, 0.03905374617346151, -0.06093983544170378, -0.07275661798632393, 0.08829542276938361, -0.03872402629113522, -0.09899886019582152, 0.04869044718278723, 0.09765256909872941, -0.04235355323099996, -0.05052084076783082, -0.05839474382774282], [0.044761639936270844, -0.11713696412113256, 0.0373839782336062, 0.11371481563014198, -0.05569721880205741, 0.09543822571501531, -0.0986166979424956, 0.03234790105765327, 0.06480401017521252, 0.08608345129749906, -0.097051775342063, -0.10292237389625894, 0.030509338276939104, 0.016497767128498972, -0.07380200089253197, 0.02169030423372084, -0.07385618191076525, -0.02076102676088071, 0.08399172928332321, -0.055607916005382244, 0.0400830184480445, 0.06280632970163251, 0.07777791021847495, -0.10148166149689734, -0.059827091289751354, -0.005142091940577423, -0.07637292069019182, -0.05817880958801554, -0.06127899599032968, 0.09711873143179894, 0.04741422679873663, 0.06037317382861291, 0.09875615201611149, 0.04975926622294775, -0.08507258088066338, 0.0052036646641677375, 0.011692037865477763, 0.1140334381884123, -0.1051530397097106, 0.09144576738135478, -0.06346515752182198, -0.0025234457426613175, -0.043893778009255535, -0.09443714455797067, -0.019861522216247634, -0.031084820512007665, 0.05533791766188607, 0.11101422392994356, 0.0893537279533762, 0.06682628181875706, 0.04306754698012083, -0.03304791955253591, -0.04519399064309993, -0.029138879511320517, 0.11863597148833784, -0.07345789856087374, 0.07548853111532293, 0.0505788047371345, 0.08191864627454025, -0.09688986842086605, -0.024358560810829436, 0.10109360050287243, -0.11900978326210822, -0.022086568608425252], [0.03818796046810286, -0.01763973010978263, 0.11338345296954964, 0.07690414634314255, -0.11280137456197033, 0.08712383176156138, -0.07101179956061503, 0.099584144900835, -0.05789641997382702, 0.05556051329932291, -0.06568675803091388, -0.060089647375439655, 0.05149278293612271, 0.1006200798067501, -0.018781593417802417, 0.08324601380489413, -0.015885649695554633, 0.03633019832615878, 0.11383530742284617, -0.09398098177990626, -0.1053200131230291, 0.07506393673053746, 0.017592980290234914, 0.04406628435305501, -0.033677004784933844, -0.08332412072388018, -0.08907405144004042, -0.0998522034298549, 0.040983375626074625, -0.11689047504919133, -0.07588808084747764, 0.09020722821603676, -0.12188215602624873, 0.06057681872831602, 0.08845252222821001, 0.08833568477566943, 0.03255494106526664, -0.11226005906256332, -0.08496681596139553, 0.0529065099348622, -0.05959824464657541, 0.09369732111052921, -0.120279150677544, 0.039004356415508507, -0.11640673724434118, 0.10710914372031187, -0.023804848880820934, 0.013936093789277687, 0.10999060331639739, 0.032608133317115665, 0.09657974715993119, 0.06202534741041909, -0.027629843799867704, -0.002056280255095227, 0.0817981022956554, -0.10610161106136606, 0.04504469417301897, -0.09134162738518922, -0.10650908178876016, -0.022783426723776038, 0.020316000615956127, 0.10408592504643592, -0.06260986271229825, 0.09146256191379074], [0.02881277965029761, -0.11545406689756213, -0.07081795485410532, 0.06517664676432165, -0.09645517988591362, 0.08011201027026825, -0.005032446942824252, -0.07090799975048742, 0.12459319809121303, 0.10002363915657705, -0.09996220056547477, -0.05786117563087092, 0.04883712230662803, 0.05482662246614966, -0.026022564600189427, -0.10247686546197578, -0.01707670898494446, 0.039605747808421535, 0.041562375281634346, 0.11947123606255228, -0.08472456232724415, -0.0779507939102578, -0.031913611519268754, -0.02220292058160937, -0.05043912131289602, 0.12279493992024411, -0.04871899082065519, 0.0006070515073635082, 0.10194931898672493, -0.07512630115468816, -0.03172760986338743, -0.03305273749941622, 0.060571137068712255, 0.007325634955342788, 0.08179386674567843, 0.04379487437283841, -0.06382870117719971, -0.09989711714769407, 0.022750318156646944, -0.06537969780251077, 0.014884534431988998, -0.03742963958058547, -0.07364940396169829, 0.08500984199098552, 0.03205424959558409, -0.11903628405386779, 0.08312275761076238, -0.09738575171336342, -0.10592202907301945, -0.11044376582161439, 0.022079771435853743, -0.08820792344499631, 0.07653242676162815, 0.09649587513534286, -0.07177999035366185, -0.10360787705700313, 0.03476816279866743, -0.06992737577130195, -0.03900201399716767, -0.07114337128939721, 0.026114252257916505, 0.0024618510769020704, 0.1034716868108483, 9.837368528143383e-05], [-0.07966581114229863, -0.025353180656913738, -0.08255267985903476, 0.07417677792981486, 0.07227464578650086, 0.03286310495423419, 0.08840441915636477, 0.014086568294258951, -0.017623538616653233, -0.020141020423181957, -0.05270424929108093, 0.11201511779148476, 0.015103820291598126, -0.0909335480421049, 0.04846587853239513, 0.11489152654700652, -0.09613710637933251, 0.007112159367679193, 0.0996265938830278, -0.10690234794493995, -0.09044153323284569, 0.07084826493275105, 0.07627517858332399, 0.1193159903763844, 0.10667486622468962, -0.006808442295876313, -0.027411000452363617, 0.024176720842316014, 0.0831005074318015, -0.008382815756475903, -0.03276062843981494, 0.020910285306570624, -0.03680488436415987, 0.02495439429251185, -0.10195783357152703, -0.024626174875910647, -0.017481822322047442, 0.09822653369801643, 0.007478242949180209, 0.09051492297901685, -0.03710246614126939, 0.10235147817462797, 0.03268605962733868, 0.11466776373722078, 0.09935145752000009, 0.06348682822901561, 0.051581874615592126, 0.03833893068250063, 0.09271499322187592, -0.10483951160739538, 0.0940714480994821, -0.07704333998430171, -0.01033630053647837, -0.03748646742738337, 0.11009053106619722, -0.03217345262347208, -0.0699220388524866, -0.011943629259486943, -0.003943679207953277, -0.11323836018536934, 0.12458006078903268, 0.04794777787546965, -0.03471349374947353, -0.10346772606807925], [-0.061445420978702384, 0.123750108684341, -0.11636349579227068, 0.07362687000622642, 0.08060237045566677, -0.10472570080231942, 0.06327445355141742, 0.07176545816913979, -0.013565848067013135, -0.06663469535846459, 0.06419570783471337, -0.11417447556355514, 0.06114337195651304, -0.09178503866939144, -0.07396826918344444, 0.09941743240641412, 0.06702282642825698, -0.08920135420238605, 0.08783585708736566, -0.0074945068950503305, 0.008061226818675195, -0.05310890650115105, 0.08529614977603035, 0.1201788023686456, -0.017131661478382368, -0.1201295251075121, -0.020313337152995267, -0.05634832250154035, 0.0472483030989876, 0.0738474266769296, 0.046447052756640544, 0.04597172744815191, -0.0075561234014420355, -0.046953344284034006, 0.11370105061885262, -0.037127204509412794, 0.021737450869310965, -0.08820085914966057, 0.01682266593554102, 0.09592569252925005, -0.08437544849633982, -0.018423338025201477, -0.008733167023922992, -0.08030196512842286, 0.10817567409900139, 0.12487933772969569, -0.08318601311236863, -0.10582743820087384, -0.05026902002192543, 0.00031306096888723356, -0.08431617816629793, -0.01862112055146522, 0.021113693260623383, 0.011287809172977272, -0.0923215183617907, 0.11321789195914206, -0.049256332002988325, -0.08955474972028733, 0.06305721925640455, -0.05536742261526109, 0.052668071620990485, -0.031994350158296804, -0.05614846695336908, -0.06896784866178035], [-0.08299826220143375, -0.09004109412273206, -0.04344011112564293, -0.0013915081038941462, -0.049518442501823766, 0.07063466427257085, 0.10341066435108351, 0.03576913050461863, -0.05390708364281689, -0.09017933223670994, 0.08406577685381647, -0.08842842146791925, 0.1235348595862733, 0.01867961583820098, -0.06608743612147829, -0.06156854111397978, -0.11084358985653606, -0.049363050265531803, -0.08067780868723681, -0.09089739097895896, -0.05102109532339472, -0.04773452721958793, 0.07977624707708647, 0.09120322759994622, -0.022616508718221694, 0.10137962921217039, 0.08165649812312353, -0.032144995166053264, -0.1041399133397433, -0.12087188846309682, -0.07116818957897297, 0.058903363288698475, -0.09740227556801145, 0.10910180165247291, -0.08649802197272775, 0.049529504435552374, 0.001083068914653098, -0.019300167220102058, 0.03163386029457872, -0.0063930036862134675, 0.10888131242419657, 0.03681024807612955, -0.06877546214013247, 0.008614950020019127, -0.07889630594687169, 0.018408427948854927, 0.04625758499396038, -0.0835448956050884, 0.054217087580627495, -0.10762384686862915, -0.05652487038835766, -0.06593179324275127, 0.07867471321667178, -0.12413336472185421, -0.04438111953577638, 0.055488852454261384, -0.08285014975621069, 0.004064022778781774, 0.06427898585822736, -0.08191933768540717, -0.11667014834306018, -0.04702432188354828, 0.05978711836319713, -0.01905534033330547], [0.027787093139151422, -0.11589588791339647, 0.11270771561231414, -0.002521671717367259, 0.04771620234252943, -0.06645370205598049, -0.008831848131692964, 0.05335789941575439, 0.01755552663416568, 0.08415642899251724, -0.06091791473904788, 0.0607051508411987, -0.012795992848789605, -0.07131696473956237, -0.01058478779966407, -0.06217352279741508, -0.11639272079317156, 0.044745443733473965, 0.09566170342500906, 0.10555413725246271, 0.058008653391094026, -0.049240096640377436, -0.015014873365726692, 0.1116404775345616, 0.0794496319977688, -0.05580669503616832, -0.022026044607939648, 0.019003890701183534, 0.12681923944566645, 0.08379963528965674, -0.06757612095455776, 0.04664072016917278, 0.03598404219992435, 0.02656472687450926, 0.07394995428696913, -0.00047230168295902923, -0.04267123375749694, -0.08427523005207331, -0.11634298504901579, 0.040285841870159815, 0.11620287416074172, -0.07888525100555363, 0.0718323706211909, 0.11274496197418343, -0.006451066220716658, -0.08407965451684424, -0.0961669045833168, 0.017166656349895525, 0.08261556849714496, -0.028891407812474942, -0.026169775978541938, 0.10134181105196587, -0.08281694590640162, -0.09180811856179465, -0.017145957172831898, -0.016984695327880543, -0.005227313888612865, 0.03545744891055044, -0.004448507871868226, 0.08791197977354928, 0.029782846416557405, -0.08768999363153901, -0.07840989261455257, -0.11393713438354298], [0.04833180943054658, 0.06032872806025613, -0.07126402547591226, -0.043651220135402624, 0.08580431773976294, 0.0819618699996222, 0.09215468283021454, 0.006553557933620614, -0.05348395409457813, 0.08750821281238881, -0.11093186684351876, -0.08443850264998257, 0.03704096076456675, 0.03171600766980082, 0.10111076573465237, 0.11389799968352313, -0.10170596993367619, 0.07773791552059771, -0.042801575792715436, 0.0011366625762937582, 0.016806054344558556, 0.03793647415988238, 0.08474113784329973, -0.011231029706527593, -0.12054339232699117, -0.07900235812294899, -0.030354188580364747, -0.002098932954968446, 0.07498131451088505, 0.08484381753572794, -0.03804135162443412, -0.04639563773173359, 0.08856179816369858, -0.038226882277119484, -0.04185182365017741, 0.045342753482797385, 0.02736045423374451, 0.04060335086138089, -0.017214850108434643, -0.021861935557902525, 0.11606986477961345, 0.012446423878264036, -0.009444976990841385, -0.07641634288476985, -0.11553914134391874, -0.05123369856367296, 0.04832338710510887, 0.08491060710759138, 0.07282342076346564, 0.10916930118109297, -0.09391429321196941, 0.017052220207401245, 0.11857913458230221, -0.06509049479606914, 0.05221942049345601, 0.05989877948473485, -0.06794730362656756, 0.009005378508159525, -0.048702385420863324, -0.04123514577702103, 0.01696071532651353, -0.017465020755796243, -0.0026915142549402277, -0.03134761569547903], [0.07933442147967389, -0.0692907501548084, 0.06505369749109773, -0.0452301968258211, 0.11870828058691249, 0.07627530694617639, -0.11512036002793911, -0.024735799394515805, 0.07745121445392587, 0.035438886510475845, 0.05872791054498404, 0.03759317005931451, -0.010605216001471659, -0.04073576596748395, -0.12277301605263562, -0.03331447691645377, -0.11417155269410242, -0.09612376008431456, -0.0514454745376027, -0.0004115881137597345, 0.08121655987312792, 0.011693576704262645, -0.015572744706329798, -0.014263556936427096, 0.048542652714949744, 0.0007952250310786093, -0.06332091000153608, 0.005703001111517862, -0.06988456745212052, -0.005261784519272971, 0.02516194089959017, -0.039501281436589375, 0.089356997315068, -0.11793374743003811, 0.033675445362975114, -0.11265945173661993, -0.06428134307690016, -0.09018181066758552, 0.10536235098146111, -0.005037811826200734, 0.1143455454479186, -0.09996218398528511, 0.09061184486743497, 0.11168302848812106, -0.01958611997860013, -0.021582242629849674, -0.11919818667683055, -0.034991034352500935, -0.11679870027271383, -0.10708571080181645, -0.03245278856092601, -0.06081468213515762, -0.11718054373817466, -0.010759312384244971, 0.08333415960994091, -0.0877909739308102, 0.08648987232283434, 0.12212223309317634, 0.11365299151991787, -0.0005199094762761092, -0.06145810860368439, 0.004594638747242301, 0.07546100431285571, 0.0002080503841148921], [0.0808925468087513, -0.05165098219756006, 0.03224100924496041, 0.057215700920929265, 0.045772867427100405, -0.050660353234847855, -0.07334897146746026, 0.02045417286609483, 0.09472014209825338, 0.0027185524924050975, -0.0979069082498185, -0.04862237762599363, -0.08647989550117663, 0.04733681518064792, 0.014274535775715618, -0.04492450748425956, -0.11481146697014658, 0.09706267397707477, 0.10130371877635526, -0.036371072039893516, 0.11435207757453043, -0.10285979825167513, -0.10104366231044795, 0.09265526661418565, 0.11161626054155276, -0.11984297572415588, 0.11321069330897997, -0.12394330735304986, -0.0318459163928341, -0.10436840361162814, -0.03377774238274957, -0.04589491825671806, -0.08457110405997734, -0.02148503338350316, 0.10583931913158927, -0.05483315910916848, 0.0027391150484426417, 0.036379337732948616, 0.10550101053454536, 0.013921362703527129, -0.028990838912717167, -0.10403104702432171, -0.12028711484018614, 0.06160637166706272, 0.021899074319244052, 0.07902163260567982, -0.10319984174916481, -0.020338904693898693, -0.017510735103123575, -0.12006399634687727, -0.008324831364364006, 0.09267766323224201, -0.013880580734282319, 0.08141659777466065, 0.08161327447947701, -0.11150759225870807, -0.10048404714900216, 0.05714921274441567, 0.013331370408210039, -0.09988224603259993, -0.0018798731365768156, 0.04872458818889933, 0.053317172939271254, -0.016081468036335613], [0.10364237884312974, 0.04009542749121049, -0.07011604145580162, 0.043505738610780595, 0.10419474169576674, -0.0521855029323725, 0.1236072756899647, -0.08151735276393439, 0.030527490368099968, 0.03590299045858132, -0.0250614947665432, -0.10315029575883612, -0.03388548383973635, 0.11044840345575115, 0.059867261459376396, 0.0049076685988606325, 0.03486038703823097, -0.04902252955122795, 0.040250445027382425, -0.019661800503712534, 0.07459887681911304, -0.05427583719081255, -0.1186896553952909, 0.017055299540339706, -0.06611294151778675, -0.030678329348862297, 0.08105881171013915, -0.08671497699259689, 0.058962992754223724, 0.09298131280523508, -0.018387820083876436, 0.04580318326485353, 0.04472573248408514, -0.0838081802071626, 0.07259644073185563, 0.10736350635570902, -0.10270265984926963, -0.09369662122114075, -0.061691853229297385, -0.08523840182352346, -0.10799046874548873, 0.03210742030316074, -0.04608636025814856, 0.1210530327859233, 0.09387771660428762, 0.04545854446697876, -0.06442508019916068, -0.07986226078518166, -0.0792804667740287, 0.1040209991078058, -0.09849725185074226, -0.08604801036208409, 0.059647631824363896, -0.059198246889169276, -0.10089526957396756, 0.053968172081024265, -0.09299954150015312, -0.03380179172993834, 0.01646287530283362, 0.06960695086817076, -0.012834714665353856, -0.0994236071583255, -0.07646395795525981, -0.11168333341165873], [0.033771033107277526, 0.09860800636837848, -0.034671923686515636, -0.09011652850555898, -0.10715384248706424, 0.053439273865343015, -0.02246033514952619, -0.08022849610124273, 0.0053745223687407355, -0.10191265647101552, -0.08219572251880486, 0.09420630756260537, -0.08778920585549828, -0.08078763905236697, -0.1109985853374875, 0.019958982814623952, 0.058336832654003815, -0.0308031425839125, -0.01623394924073189, 0.09403152745809198, -0.0031215048222652413, 0.10348325812100183, 0.07963568807440112, -0.06579831845755695, -0.026857193683998498, -0.09331749225595419, -0.004322363544184398, 0.11988131442429806, -0.07894552533705355, 0.1024725178507587, 0.09652633020518692, 0.06013998934529495, 0.030106066824165636, 0.060202630331644795, -0.07281546701844706, -0.016654028416748446, 0.1195491043661835, -0.024657976124368222, -0.10274726516661982, 0.06437153919066506, -0.08700746572021896, 0.054501195748383524, 0.014081532825234874, 0.12169686456623732, 0.12029331514877335, -0.1155996320989596, -0.06853900932278384, 0.03844668457799954, 0.10921609010894323, 0.042551981804992055, -0.039503701608405786, 0.07868566976399659, 0.06235622685519805, 0.012151444609225738, -0.02365730568273939, -0.05480456659509144, -0.007227089291055843, -0.04601089251440024, 0.10118028939731931, -0.11869844381853724, 0.04795749272797743, 0.06539372771614395, 0.007055832586864806, -0.09989373146160584], [0.1191587836937143, -0.016717219360595583, -0.0811048195773068, 0.1311348308473911, 0.08071046356551462, -0.05745292490388879, 0.07533121383610229, -0.012785221727969448, -0.013846089007604975, 0.07078249794696706, -0.031789453859307544, -0.03280435137158039, 0.08985395878566302, -0.029077018963519424, -0.009129799221686032, 0.11183909057203902, 0.02870190027085992, -0.11101518519420102, -0.0009486001530642981, 0.08118051825820806, 0.03778597020818633, 0.06782631949901556, -0.008576078448025208, -0.008166008048447422, 0.03669309437218378, 0.03717122154255766, -0.11527101557467216, -0.00013735222876065425, 0.10921099642962145, -0.08472336658946732, -0.056544289548411716, 0.04283490734368766, 0.042531185966145954, 0.01947229202929063, 0.007550153188291146, -0.10476310403023426, 0.03004509566533901, -0.088777086759255, 0.11945661842862586, 0.03326066490274094, -0.0652845782947341, -0.06495937803123353, 0.09232827257429173, 0.0949157029774986, 0.12301398344787387, 0.08190079718238652, -0.0897629961569617, 0.06892502673918262, 0.041309764365537176, -0.07230816200220926, 0.03752304101887104, -0.04626512800965615, 0.05995866712005289, -0.039711949188236485, 0.10358533974058032, 0.06778574052436494, -0.12389784944134392, 0.12244867137681775, 0.06912384044223241, -0.06261614861391769, -0.08880958234461386, 0.019156113096442922, -0.00696783999881059, -0.07009288289559622], [-0.07123780033163335, 0.028048021385134004, -0.07501871353097844, 0.1228920198051353, -0.05487557509505125, 0.02621653517217365, 0.11035597722091557, 0.04712944164114744, 0.036577256863055865, 0.012657251319709904, -0.026566204625923736, -0.07607287883111263, -0.05766374961927412, -0.008147458697942249, -0.06388419919233887, -0.12578995354528835, 0.120217709061213, -0.09460070629065674, -0.003942582860223557, -0.06329264176926856, -0.08310387628430156, -0.0300152464004663, -0.06306154603162173, 0.0420536765758438, 0.017079955285012757, -0.06883054320122758, 0.09364393115027492, -0.006088990229802196, 0.030688526958417336, -0.011509785405857214, -0.0015164692227419478, 0.018220006695489805, 0.070133261916407, 0.10086087677218818, 0.00035138879080664646, -0.10847466377019785, 0.06454700473353576, 0.11044869145691294, 0.09751714737064343, 0.10505753511812908, -0.07206343028356124, 0.10270789033840301, 0.061893314386075954, 0.06138295567878583, -0.03970564410633565, 0.09282289477514404, -0.010910298424568634, -0.05272353508089699, 0.04290997734436379, -0.07081984577797919, 0.07722726760471472, -0.0992396857965887, -0.030892510087100186, -0.08114389541247873, -0.07999450295717637, -0.1133827174048512, -0.1113630067459177, 0.0022613418951317604, 0.07468593467608736, 0.04265127417151791, -0.11086538735386298, -0.05401964674333115, -0.11762629616390807, 0.09360775254539558], [-0.10628930234170719, 0.034355954995209124, -0.035096031319154494, 0.051281459653874574, 0.09803156293503233, -0.07191982056267651, 0.11111262625289743, 0.0018340793895232988, 0.06343111941552344, -0.10325634924684086, 0.10508723730904525, 0.0802503662353295, 0.00894421023748598, -0.08846967019997044, -0.10843937454745096, 0.1018870066898209, 0.09065309899281984, -0.06117324554081988, -0.033696794653790295, 0.1193165215315205, -0.02786525824674573, -0.06115676084192239, 0.10594381761506723, -0.07311815749032151, -0.09443595981001106, -0.12541719614758362, 0.08328826066600258, 0.03651956749789173, -0.07046312293326423, 0.0011389264058605248, 0.07709894738361522, -0.03603158108671435, -0.033308052974501325, 0.09569259800341222, -0.07786319126701835, -0.014549579935747237, 0.017374157120013126, -0.07033584645292058, -0.09084420722914666, 0.04224934013277868, -0.024650946364112067, -0.03289672785655521, -0.10256458738544309, -0.007517092906773531, 0.09506163453570196, 0.08228769614535587, -0.11167035393913996, 0.09395445019522763, 0.047647454537941884, -0.04494044680216449, -0.11630004803050867, -0.01961710300849526, 0.03606788349704551, -0.0075583403417568305, -0.10380845008087992, 0.09497785013771759, -0.068253032282228, -0.1219487594363934, 0.11217274728388978, -0.015445571352297889, -0.0931236598464315, 0.015575567231187406, 0.04987695062198149, -0.013678415817429032], [0.02996690490457226, 0.012349841567392454, 0.10961611703390445, 0.0513857035756862, 0.017973287745020165, -6.301908811694084e-05, -0.05058340690890665, -0.005572773245106309, 0.0526487600239622, 0.0891296410513312, 0.11502957079358615, 0.017763410438074407, -0.08793931820550804, 0.12032052786239411, 0.12104545911104012, 0.07997110699600266, 0.02911998951381153, 0.11420350606434251, 0.02315406621119231, 0.038822746562388016, 0.12430238952932074, 0.06606978307954449, 0.024418830172931713, -0.05472077244010549, 0.04047171372715182, -0.11890175765316535, -0.11504960049263159, 0.009222668374772062, -0.10518228255375485, 0.09357215767617975, 0.07624816613602024, 0.08046509794674483, -0.07008823721107409, -0.0024983269219111355, -0.10222970302777722, -0.09599033090251953, 0.02879118638467617, -0.048052593737876965, -0.04450911364590155, 0.09884372886159033, 0.0015741169567915407, -0.09365998469065241, -0.06117257883369879, 0.0818766248409152, 0.07572416708941118, -0.07058319889138599, -0.0911835969717693, -0.10895858712585102, 0.10917688046057103, 0.124091559805848, 0.09871285034410308, -0.020608517220916247, 0.08891678749505387, -0.004280378191199681, 0.0956664693188828, 0.11696433425961444, 0.013374072469931313, 0.0024118174628227898, 0.03639902688608792, 0.022811390786487307, -0.009363501414839569, 0.1011768815163714, -0.046759472881891896, -0.06420137005102854], [-0.05212861559368427, -0.0385425991592537, 0.02557929817358011, -0.05115439249057474, -0.009421841763239703, 0.04776339016972881, 0.09970186549657763, 0.08955745147834815, 0.11235023011354728, -0.02439399261067696, -0.10711299179345848, 0.049377060828985485, -0.11790067120798917, 0.008788125546494443, -0.022233463430382513, 0.037096805027631435, -0.0977221627542942, 0.04622353010727831, 0.08337630572479313, 0.11243119343195329, -0.11120643602863566, -0.09746419312507186, 0.051860697446647085, 0.11756133770746816, 0.09316062888808523, -0.08236666338759835, -0.09967160045536937, 0.03289341680271524, 0.11235426120377145, -0.11237510864482418, 0.01657122700972782, 0.04511611896758425, -0.013965735770589549, 0.03829327362768266, -0.11875137165337994, 0.10530885732072681, 0.06856216929024965, -0.026462225064195558, 0.027685349819314475, -0.057053937613369535, 0.014709145228927776, 0.00833427663809966, 0.0719397268115911, -0.0017831307194771952, 0.051042557418547074, -0.0006367592753319869, -0.039429255939289545, -0.06056513008460488, 0.06049221025383237, 0.02605507907122209, -0.045574125860375174, -0.09719839483881784, 0.08767137444726719, -0.023271628206061233, -0.0605497747668428, 0.06445863357456819, -0.017388011143554184, 0.06993148588889748, 0.014845957963384294, 0.11767935647069164, -0.02150185420621488, 0.056849827826784174, -0.11015489963893046, -0.04615698984576041], [0.1036198501524241, 0.08039353691902894, -0.028248056418291752, 0.05843464196701875, -0.07505364855211341, 0.10827645750110332, 0.11937721663539819, 0.10726810992953786, -0.07962883865139377, 0.12019256575448953, -0.11364926295718356, -0.051165384305115164, -0.016413074337904298, -0.09107814370211868, -0.09046880363734187, -0.058333664539866534, -0.006859204260146818, 0.05301599238535737, -0.058984830298789426, -0.05464788600311091, 0.12395830531708146, -0.029584855450628656, -0.09958300658819506, -0.07082955171170131, 0.089756365272448, -0.06582252252136309, 0.10327918311671357, -0.0684225250335229, 0.10905917777618294, -0.038309494906663216, -0.013727268608769952, -0.003934877172846134, 0.011881759857262876, -0.09826526878772306, -0.06572598140016987, 0.006455500553999101, -0.0420969702776916, 0.01070657917598369, -0.028767082401645754, 0.007929277431381762, 0.12379128300520122, 0.08496840213012875, 0.06365340123059267, -0.12223237446086056, 0.007210881220061908, 0.1142179417943689, 0.033674757457358394, 0.05824319173580893, -0.11775871663082078, -0.03495854790301486, 0.03202569593834619, -0.020968944498254538, 0.05292816752581423, -0.0588522771561943, -0.06774575563106645, 0.04156395131044977, 0.03622915671838434, 0.012638030115430599, 0.0857970820027537, -0.038705639355085704, 0.07735666802835837, -0.05353776340820339, 0.00205556460794085, 0.049492673827185196], [0.050450732841092506, 0.041874500987096074, 0.04720631913675463, -0.08999128497606229, 0.0590735424240146, -0.07298929114744164, -0.08800575352032272, 0.06824781482102012, 0.005860910230653071, 0.07245054112766414, -0.10313677785368647, -0.037900615708812355, -0.12547564483915052, -0.12184082373897892, -0.04130062613273031, -0.026489793654355786, -0.06330173091944341, -0.06821814456186807, -0.025698842179056634, -0.12402200243184179, 0.03645180153258316, 0.011919981061424435, -0.12256763622350374, 0.08809584282081181, -0.10320110806099135, 0.09025506622543139, 0.07259126371447683, 0.00974215454704645, 0.006845056493675371, 0.11466636187932368, -0.07487401690713806, 0.041023858923574456, -0.02365750728777443, -0.0009225327181114263, -0.04111696338285041, -0.006081630917175863, 0.1103284844258858, 0.044662054817596615, -0.010692675610913506, -0.07022641365621897, 0.03083365508252246, -0.0838666085050709, 0.007797133089388128, 0.07592120292448545, 0.02351610636094444, 0.07227151694345235, -0.031659310035223216, 0.03814220646724232, -0.11759278222559613, -0.02905545707815578, 0.00932581754508837, -0.09984640234716563, 0.1103391346706289, 0.11327523414413326, -0.07268097724429848, 0.11419101293665491, -0.03968402251863983, -0.020173130809924247, 0.12092296115871172, -0.035859047313394316, 0.07784105349749931, 0.058147891062612825, 0.028685105069291804, -0.060166677140698614], [-0.07251502564769838, -0.006764364914923747, -0.0467640346588743, -0.0002931993891396796, -0.0187500280545563, -0.021678120317065973, -0.0204211559618417, -0.02722878271057088, -0.004853012427794965, 0.0961495377538022, 0.07397216127294988, 0.04994036758797163, 0.06328420672292244, -0.0508256591268033, 0.011297898786111158, 0.02780552170703433, -0.03550325230991376, -0.06121806528212728, -0.10270876915408188, -0.045580477385405535, -0.07892653521682512, -0.009420482589864143, -0.12302766825656553, 0.019661896607225414, -0.028009242697065482, 0.020358456934418016, -0.023049346252304738, 0.030922216132545893, 0.020209063684337992, 0.12156842738115166, 0.12134402600234656, 0.010020422602211677, -0.053213118811127856, -0.042024667281494704, -0.0557312234773009, -0.07165416020874549, 0.03469019500593749, 0.033310672706620616, -0.11934711573187348, 0.06043055033395555, 0.030663130418099104, 0.0009121726348599317, 0.099722652913164, -0.087925754116164, 0.031024741781056277, -0.11812301796054422, -0.05211224294537368, -0.1145391824294583, -0.04417086249755557, 0.03569503100156975, -0.10180890419642949, 0.07844598097884742, -0.018700192918499548, -0.05552853945975946, 0.11742279186782743, 0.06562518010209886, -0.11344398682438882, 0.08479350723011168, 0.0844295775346595, -0.0007910721584759644, 0.118401019392981, -0.10425522717333705, 0.050931850689565725, 0.06186432798360595], [-0.02874267640636084, 0.04576616267841152, -0.02212510235484209, 0.0464508938290448, 0.12187695250619109, -0.051196958692123845, -0.08397114978838731, 0.035686343065606085, 0.10368900483157643, -0.07691920713359514, -0.09534347560064371, -0.10646785934596956, -0.10566371936130248, 0.11716035921384316, 0.04882724945631922, -0.02599715461523061, -0.10304892688249712, 0.05378314901353667, 0.027920284772921574, -0.048095293835313364, -0.08064384968820612, 0.08847370119341687, -0.1082365171452926, 0.11875087372107364, 0.11811974856487523, 0.07314969230419845, 0.07840716523143294, -0.018757399389268813, -0.04129744460417526, -0.03019670727439704, -0.048407526613693165, -0.05035233218198855, 0.08344057759464324, 0.1246358087249675, -0.02063778749741525, -0.11628869711548875, 0.0847773721189311, -0.10028396153410318, 0.03402878979321691, -0.024183656754703336, 0.013047734043263757, 0.05785435642967279, -0.12330340064742377, -0.07357037224851841, 0.047143145081762636, 0.024827939749683045, -0.001164545908518034, 0.07718663216996612, 0.10048331739537014, -0.12468484901736096, 0.06015767127133015, -0.10719698522712874, -0.022036834026442985, 0.09615206549810415, 0.04098770879292412, -0.09783344864932167, 0.03941667372038984, -0.08480539903564646, 0.03724267842755579, -0.08485749202305332, -0.06983721654150273, -0.06807867827006565, -0.005496769803442575, 0.07245956746000869], [0.013141091080315418, 0.029762821366906524, 0.005825397046945644, -0.015632142154475604, 0.004580132518766602, -0.004076452433830575, -0.09308917418935302, -0.06030962469572202, -0.10745201167556952, 0.006054287576717233, -0.02701842300319279, -0.10599730183341131, 0.0609294927705623, 0.09767912317343874, -0.10640409814373748, -0.1024904548461341, -0.09890387825243156, -0.024572127384019465, 0.02293484124752729, 0.10889249123057541, 0.015905056181436644, -0.04712659321431006, 0.0071108921966315216, -0.0020496694081415367, -0.01719216466640934, 0.06874193445612853, -0.015944774188627626, 0.06617789668248364, -0.02516495594493215, 0.11706849338172153, -0.11222310654933469, -0.12498482489533409, -0.11356006657822283, 0.06415789632522205, -0.00452790944246965, -0.09458521448766836, -0.04542825071395439, 0.034161872721156325, -0.06701458801599129, -0.031058710064523768, -0.03983047059997602, 0.022556328284414236, -0.03179911242135743, -0.11985992167297353, -0.0641619471972313, -0.048121341648941544, -0.008551924720806882, 0.058239312643108866, -0.09569680688205863, -0.07900910843270913, -0.04966741587148111, -0.055599814454910274, 0.006500045749342532, -0.046972690921826314, 0.0807225136164823, 0.09515992478724641, -0.011777284622418551, 0.023037562879739775, -0.11663455904252658, 0.025010128947663843, 0.08728763545280485, 0.10950222721878783, -0.1224119257346001, 0.09630004054669067], [-0.023792601930688356, -0.004040527058126466, 0.015462050872582627, -0.03138805512373548, -0.0028496791640621917, -0.004150778964503666, -0.01567049946567325, 0.08757826419209154, 0.01670050279519895, 0.015782996319633553, -0.0442019594106583, -0.08006130498134713, 0.09838786226826682, 0.07541983684674589, -0.03653346232243274, 0.1026720858040662, -0.013272392373500315, 0.11992228966654817, -0.11685427802742414, -0.11612871224575487, 0.03892299637182863, -0.04686447433402054, -0.09786080763943002, -0.010015007346948858, 0.05569586442086739, 0.04454228390550499, -0.10582869548714255, -0.04135470497974482, 0.06531402279597853, -0.009552665281949356, -0.004051679092170325, 0.020544691019136526, -0.04661812594091998, 0.06064613971320549, 0.016391882845368754, 0.006914583267359696, -0.06538916384251882, 0.04806261276080528, -0.09419660627236552, 0.05096663940890089, -0.051326249493742676, 0.05076662489090142, 0.09887124050063577, 0.0004414150465440854, -0.09531185896634788, 0.08081783595841997, -0.10936924424125179, -0.007346539224110675, 0.04897453027473173, 0.07432327464515917, 0.11604862829716106, 0.05043382552360869, 0.06764269835084459, 0.11709726155050199, -0.03817313187067497, 0.08656058722851481, -0.10530553815840424, -0.06861918026304456, 0.11995103597105522, 0.11249812890437474, 0.008652906390093302, 0.08942484558136267, 0.06331310102122091, -0.023247552074257428], [-0.11951037570281126, -0.03838659439097676, 0.07790239287251093, 0.1207597287062087, 0.05960486084444224, 0.04236620411796304, 0.02045637408762233, 0.09877154861947736, -0.02531968837491787, 0.09276807465066388, 0.12489503960468858, 0.05969297698361374, -0.11331810336309438, -0.04642011219915839, 0.018768196531670063, 0.11214942675714279, 0.00873773269895239, 0.1244017480071133, -0.0467339219361066, -0.044376871567012255, -0.08831868871422363, -0.07541055212769197, 0.09993135567088055, -0.10518783258577409, -0.07751789040477865, 0.007777558012105535, 0.10455822253374726, 0.05324789896004211, 0.06985276488618669, -0.014922307966312724, -0.06414655918395314, 0.08884023957943722, -0.027943414569380036, 0.1176280562115753, -0.08853963089706535, -0.07915761084381061, -0.0935230147334854, 0.018373160037944897, 0.12333956140835946, -0.04801909523165558, -0.10104359573962209, 0.015581742509486653, 0.08474158026147036, -0.014120713613563388, 0.005067770451276334, 0.0508597351280154, 0.003843140246417138, 0.013332243971154532, 0.059638001281049284, -0.04472690205005977, -0.0491793545709479, -0.0010066923734147373, 0.00543776942751075, -0.08936673722790851, 0.005122911690344343, 0.034948036753804215, 